{
  "version": "1.0",
  "truncation": null,
  "padding": null,
  "added_tokens": [
    {
      "id": 0,
      "content": "<s>",
      "single_word": false,
      "lstrip": false,
      "rstrip": false,
      "normalized": false,
      "special": true
    },
    {
      "id": 1,
      "content": "<pad>",
      "single_word": false,
      "lstrip": false,
      "rstrip": false,
      "normalized": false,
      "special": true
    },
    {
      "id": 2,
      "content": "</s>",
      "single_word": false,
      "lstrip": false,
      "rstrip": false,
      "normalized": false,
      "special": true
    },
    {
      "id": 3,
      "content": "<unk>",
      "single_word": false,
      "lstrip": false,
      "rstrip": false,
      "normalized": false,
      "special": true
    },
    {
      "id": 4,
      "content": "<mask>",
      "single_word": false,
      "lstrip": true,
      "rstrip": false,
      "normalized": true,
      "special": true
    },
    {
      "id": 36450,
      "content": "[SEP]",
      "single_word": false,
      "lstrip": false,
      "rstrip": false,
      "normalized": false,
      "special": true
    },
    {
      "id": 36451,
      "content": "[CLS]",
      "single_word": false,
      "lstrip": false,
      "rstrip": false,
      "normalized": false,
      "special": true
    },
    {
      "id": 36452,
      "content": "[MASK]",
      "single_word": false,
      "lstrip": true,
      "rstrip": false,
      "normalized": false,
      "special": true
    }
  ],
  "normalizer": null,
  "pre_tokenizer": {
    "type": "ByteLevel",
    "add_prefix_space": false,
    "trim_offsets": true,
    "use_regex": true
  },
  "post_processor": {
    "type": "ByteLevel",
    "add_prefix_space": true,
    "trim_offsets": false,
    "use_regex": true
  },
  "decoder": {
    "type": "ByteLevel",
    "add_prefix_space": true,
    "trim_offsets": true,
    "use_regex": true
  },
  "model": {
    "type": "BPE",
    "dropout": null,
    "unk_token": null,
    "continuing_subword_prefix": null,
    "end_of_word_suffix": null,
    "fuse_unk": false,
    "byte_fallback": false,
    "vocab": {
      "<s>": 0,
      "<pad>": 1,
      "</s>": 2,
      "<unk>": 3,
      "<mask>": 4,
      "!": 5,
      "\"": 6,
      "#": 7,
      "$": 8,
      "%": 9,
      "&": 10,
      "'": 11,
      "(": 12,
      ")": 13,
      "*": 14,
      "+": 15,
      ",": 16,
      "-": 17,
      ".": 18,
      "/": 19,
      "0": 20,
      "1": 21,
      "2": 22,
      "3": 23,
      "4": 24,
      "5": 25,
      "6": 26,
      "7": 27,
      "8": 28,
      "9": 29,
      ":": 30,
      ";": 31,
      "<": 32,
      "=": 33,
      ">": 34,
      "?": 35,
      "@": 36,
      "A": 37,
      "B": 38,
      "C": 39,
      "D": 40,
      "E": 41,
      "F": 42,
      "G": 43,
      "H": 44,
      "I": 45,
      "J": 46,
      "K": 47,
      "L": 48,
      "M": 49,
      "N": 50,
      "O": 51,
      "P": 52,
      "Q": 53,
      "R": 54,
      "S": 55,
      "T": 56,
      "U": 57,
      "V": 58,
      "W": 59,
      "X": 60,
      "Y": 61,
      "Z": 62,
      "[": 63,
      "\\": 64,
      "]": 65,
      "^": 66,
      "_": 67,
      "`": 68,
      "a": 69,
      "b": 70,
      "c": 71,
      "d": 72,
      "e": 73,
      "f": 74,
      "g": 75,
      "h": 76,
      "i": 77,
      "j": 78,
      "k": 79,
      "l": 80,
      "m": 81,
      "n": 82,
      "o": 83,
      "p": 84,
      "q": 85,
      "r": 86,
      "s": 87,
      "t": 88,
      "u": 89,
      "v": 90,
      "w": 91,
      "x": 92,
      "y": 93,
      "z": 94,
      "{": 95,
      "|": 96,
      "}": 97,
      "~": 98,
      "¡": 99,
      "¢": 100,
      "£": 101,
      "¤": 102,
      "¥": 103,
      "¦": 104,
      "§": 105,
      "¨": 106,
      "©": 107,
      "ª": 108,
      "«": 109,
      "¬": 110,
      "®": 111,
      "¯": 112,
      "°": 113,
      "±": 114,
      "²": 115,
      "³": 116,
      "´": 117,
      "µ": 118,
      "¶": 119,
      "·": 120,
      "¸": 121,
      "¹": 122,
      "º": 123,
      "»": 124,
      "¼": 125,
      "½": 126,
      "¾": 127,
      "¿": 128,
      "À": 129,
      "Á": 130,
      "Â": 131,
      "Ã": 132,
      "Ä": 133,
      "Å": 134,
      "Æ": 135,
      "Ç": 136,
      "È": 137,
      "É": 138,
      "Ê": 139,
      "Ë": 140,
      "Ì": 141,
      "Í": 142,
      "Î": 143,
      "Ï": 144,
      "Ð": 145,
      "Ñ": 146,
      "Ò": 147,
      "Ó": 148,
      "Ô": 149,
      "Õ": 150,
      "Ö": 151,
      "×": 152,
      "Ø": 153,
      "Ù": 154,
      "Ú": 155,
      "Û": 156,
      "Ü": 157,
      "Ý": 158,
      "Þ": 159,
      "ß": 160,
      "à": 161,
      "á": 162,
      "â": 163,
      "ã": 164,
      "ä": 165,
      "å": 166,
      "æ": 167,
      "ç": 168,
      "è": 169,
      "é": 170,
      "ê": 171,
      "ë": 172,
      "ì": 173,
      "í": 174,
      "î": 175,
      "ï": 176,
      "ð": 177,
      "ñ": 178,
      "ò": 179,
      "ó": 180,
      "ô": 181,
      "õ": 182,
      "ö": 183,
      "÷": 184,
      "ø": 185,
      "ù": 186,
      "ú": 187,
      "û": 188,
      "ü": 189,
      "ý": 190,
      "þ": 191,
      "ÿ": 192,
      "Ā": 193,
      "ā": 194,
      "Ă": 195,
      "ă": 196,
      "Ą": 197,
      "ą": 198,
      "Ć": 199,
      "ć": 200,
      "Ĉ": 201,
      "ĉ": 202,
      "Ċ": 203,
      "ċ": 204,
      "Č": 205,
      "č": 206,
      "Ď": 207,
      "ď": 208,
      "Đ": 209,
      "đ": 210,
      "Ē": 211,
      "ē": 212,
      "Ĕ": 213,
      "ĕ": 214,
      "Ė": 215,
      "ė": 216,
      "Ę": 217,
      "ę": 218,
      "Ě": 219,
      "ě": 220,
      "Ĝ": 221,
      "ĝ": 222,
      "Ğ": 223,
      "ğ": 224,
      "Ġ": 225,
      "ġ": 226,
      "Ģ": 227,
      "ģ": 228,
      "Ĥ": 229,
      "ĥ": 230,
      "Ħ": 231,
      "ħ": 232,
      "Ĩ": 233,
      "ĩ": 234,
      "Ī": 235,
      "ī": 236,
      "Ĭ": 237,
      "ĭ": 238,
      "Į": 239,
      "į": 240,
      "İ": 241,
      "ı": 242,
      "Ĳ": 243,
      "ĳ": 244,
      "Ĵ": 245,
      "ĵ": 246,
      "Ķ": 247,
      "ķ": 248,
      "ĸ": 249,
      "Ĺ": 250,
      "ĺ": 251,
      "Ļ": 252,
      "ļ": 253,
      "Ľ": 254,
      "ľ": 255,
      "Ŀ": 256,
      "ŀ": 257,
      "Ł": 258,
      "ł": 259,
      "Ń": 260,
      "en": 261,
      "er": 262,
      "Ġd": 263,
      "an": 264,
      "Ġv": 265,
      "in": 266,
      "et": 267,
      "el": 268,
      "ij": 269,
      "Ġo": 270,
      "Ġh": 271,
      "aa": 272,
      "Ġde": 273,
      "or": 274,
      "Ġm": 275,
      "st": 276,
      "Ġw": 277,
      "Ġb": 278,
      "Ġg": 279,
      "ie": 280,
      "Ġe": 281,
      "Ġt": 282,
      "ch": 283,
      "Ġa": 284,
      "at": 285,
      "Ġz": 286,
      "Ġen": 287,
      "Ġvan": 288,
      "is": 289,
      "Ġk": 290,
      "it": 291,
      "Ġeen": 292,
      "aar": 293,
      "Ġn": 294,
      "Ġin": 295,
      "oor": 296,
      "on": 297,
      "ing": 298,
      "Ġhet": 299,
      "le": 300,
      "Ġge": 301,
      "Ġp": 302,
      "de": 303,
      "Ġs": 304,
      "der": 305,
      "re": 306,
      "den": 307,
      "Ġj": 308,
      "oe": 309,
      "ig": 310,
      "Ġop": 311,
      "Ġte": 312,
      "al": 313,
      "Ġis": 314,
      "Ġbe": 315,
      "ar": 316,
      "Ġver": 317,
      "cht": 318,
      "ro": 319,
      "ijk": 320,
      "Ġu": 321,
      "Ġvoor": 322,
      "om": 323,
      "ĠD": 324,
      "ee": 325,
      "ken": 326,
      "eer": 327,
      "ijn": 328,
      "Ġl": 329,
      "Ġon": 330,
      "Ġal": 331,
      "Ġmet": 332,
      "ge": 333,
      "gen": 334,
      "Ġje": 335,
      "ur": 336,
      "ver": 337,
      "ik": 338,
      "Ġaan": 339,
      "il": 340,
      "un": 341,
      "Ġst": 342,
      "iet": 343,
      "Ġdat": 344,
      "ol": 345,
      "ou": 346,
      "am": 347,
      "and": 348,
      "Ġc": 349,
      "ot": 350,
      "te": 351,
      "ok": 352,
      "Ġom": 353,
      "ven": 354,
      "id": 355,
      "ra": 356,
      "Ġzijn": 357,
      "og": 358,
      "ĠH": 359,
      "ze": 360,
      "aat": 361,
      "ct": 362,
      "elijk": 363,
      "sch": 364,
      "ru": 365,
      "ent": 366,
      "Ġer": 367,
      "Ġdie": 368,
      "op": 369,
      "Ġniet": 370,
      "as": 371,
      "eb": 372,
      "Ġf": 373,
      "âĢ": 374,
      "es": 375,
      "Ġuit": 376,
      "rij": 377,
      "ers": 378,
      "eel": 379,
      "ĠB": 380,
      "ele": 381,
      "Ġwor": 382,
      "ĠM": 383,
      "ft": 384,
      "ĠA": 385,
      "ĠE": 386,
      "ĠS": 387,
      "Ġbij": 388,
      "us": 389,
      "Ġof": 390,
      "he": 391,
      "ste": 392,
      "Ġook": 393,
      "ier": 394,
      "ag": 395,
      "ĠDe": 396,
      "ien": 397,
      "aal": 398,
      "atie": 399,
      "Ġre": 400,
      "aan": 401,
      "kt": 402,
      "Ġle": 403,
      "Ġ1": 404,
      "ant": 405,
      "Ġover": 406,
      "Ġwe": 407,
      "ĠW": 408,
      "uw": 409,
      "ak": 410,
      "ul": 411,
      "Ġkun": 412,
      "ĠI": 413,
      "im": 414,
      "ĠV": 415,
      "len": 416,
      "nen": 417,
      "Ġ2": 418,
      "em": 419,
      "dt": 420,
      "Ġals": 421,
      "sen": 422,
      "oo": 423,
      "Ġheb": 424,
      "ic": 425,
      "Ġ(": 426,
      "ingen": 427,
      "Ġik": 428,
      "Ġzo": 429,
      "Ġdan": 430,
      "Ġwer": 431,
      "ĠN": 432,
      "eren": 433,
      "ten": 434,
      "ad": 435,
      "ĠT": 436,
      "icht": 437,
      "ĠG": 438,
      "ang": 439,
      "ĠO": 440,
      "ĠC": 441,
      "Ġwaar": 442,
      "Ġmaar": 443,
      "uur": 444,
      "ap": 445,
      "sp": 446,
      "Ġdoor": 447,
      "Ġpro": 448,
      "ĠL": 449,
      "se": 450,
      "Ġze": 451,
      "Ġkan": 452,
      "je": 453,
      "ige": 454,
      "ĠP": 455,
      "Ġnaar": 456,
      "eld": 457,
      "Ġonder": 458,
      "Ġgeb": 459,
      "eeft": 460,
      "Ġaf": 461,
      "ite": 462,
      "Ġsp": 463,
      "Ġmo": 464,
      "elen": 465,
      "Ġheeft": 466,
      "Ġsch": 467,
      "ander": 468,
      "ond": 469,
      "lijk": 470,
      "ist": 471,
      "Ġmeer": 472,
      "ĠZ": 473,
      "Ġdeze": 474,
      "Ġr": 475,
      "ter": 476,
      "Ġworden": 477,
      "oed": 478,
      "Ġalle": 479,
      "ijd": 480,
      "Ġwel": 481,
      "ke": 482,
      "isch": 483,
      "Ġwat": 484,
      "oen": 485,
      "ĠK": 486,
      "ĠHet": 487,
      "orm": 488,
      "ut": 489,
      "ve": 490,
      "ĠâĢ": 491,
      "ast": 492,
      "ĠR": 493,
      "be": 494,
      "Ġwordt": 495,
      "Ġnog": 496,
      "ĠJ": 497,
      "ind": 498,
      "Ġtot": 499,
      "zen": 500,
      "ben": 501,
      "heid": 502,
      "ker": 503,
      "Ġdit": 504,
      "Ġont": 505,
      "De": 506,
      "elf": 507,
      "art": 508,
      "oek": 509,
      "aag": 510,
      "00": 511,
      "Ġhebben": 512,
      "een": 513,
      "uit": 514,
      "pen": 515,
      "Ġma": 516,
      "wer": 517,
      "Ġander": 518,
      "Ã©": 519,
      "od": 520,
      "Ġgr": 521,
      "acht": 522,
      "ia": 523,
      "um": 524,
      "âĢĻ": 525,
      "ieuw": 526,
      "os": 527,
      "ies": 528,
      "omen": 529,
      "oon": 530,
      "Ġvol": 531,
      "Ġpl": 532,
      "Ġbet": 533,
      "ion": 534,
      "igen": 535,
      "ĠIn": 536,
      "ich": 537,
      "Ã«": 538,
      "ĠF": 539,
      "ort": 540,
      "Ġkunnen": 541,
      "Ġdaar": 542,
      "eten": 543,
      "Ġcon": 544,
      "Ġgro": 545,
      "sl": 546,
      "Ġbl": 547,
      "Ġmen": 548,
      "ere": 549,
      "sten": 550,
      "ine": 551,
      "ouw": 552,
      "ische": 553,
      "dat": 554,
      "Ġwas": 555,
      "Ġmee": 556,
      "ell": 557,
      "ed": 558,
      "Ġwil": 559,
      "ruik": 560,
      "Ġgoed": 561,
      "Ġkl": 562,
      "Ġuw": 563,
      "af": 564,
      "pl": 565,
      "aak": 566,
      "onder": 567,
      "Ġveel": 568,
      "els": 569,
      "aten": 570,
      "Ġbest": 571,
      "eg": 572,
      "Ġgem": 573,
      "Ġ20": 574,
      "ip": 575,
      "Ġgew": 576,
      "Ġgeen": 577,
      "ac": 578,
      "Ġhier": 579,
      "Ġter": 580,
      "voor": 581,
      "org": 582,
      "Ġjaar": 583,
      "Ġons": 584,
      "of": 585,
      "jes": 586,
      "Ġtoe": 587,
      "ief": 588,
      "Ġbed": 589,
      "ab": 590,
      "uis": 591,
      "iteit": 592,
      "Ġeer": 593,
      "aren": 594,
      "Ġto": 595,
      "per": 596,
      "elijke": 597,
      "Ġnieuw": 598,
      "du": 599,
      "Ġgev": 600,
      "ir": 601,
      "land": 602,
      "Ġwij": 603,
      "oord": 604,
      "inder": 605,
      "hou": 606,
      "oc": 607,
      "iÃ«": 608,
      "oop": 609,
      "Ġhij": 610,
      "ĠAl": 611,
      "Ġcom": 612,
      "Ġzich": 613,
      "erg": 614,
      "uk": 615,
      "ec": 616,
      "men": 617,
      "amen": 618,
      "wee": 619,
      "Ġzelf": 620,
      "als": 621,
      "Ġkunt": 622,
      "aakt": 623,
      "Ġna": 624,
      "ug": 625,
      "iek": 626,
      "Ġonze": 627,
      "Ġmaken": 628,
      "ide": 629,
      "ale": 630,
      "ren": 631,
      "gev": 632,
      "ĠEn": 633,
      "Ġandere": 634,
      "alen": 635,
      "racht": 636,
      "Ġgebruik": 637,
      "eerd": 638,
      "Ġ3": 639,
      "aard": 640,
      "ings": 641,
      "chter": 642,
      "Ġbel": 643,
      "Ġhoe": 644,
      "ma": 645,
      "Ġper": 646,
      "act": 647,
      "Het": 648,
      "wij": 649,
      "baar": 650,
      "Ġweer": 651,
      "open": 652,
      "Ġ201": 653,
      "Ġme": 654,
      "Ġel": 655,
      "innen": 656,
      "ne": 657,
      "erd": 658,
      "Ġmijn": 659,
      "ank": 660,
      "Ġbeg": 661,
      "iv": 662,
      "Ġgez": 663,
      "bl": 664,
      "oel": 665,
      "eder": 666,
      "Ġversch": 667,
      "aam": 668,
      "uren": 669,
      "Ġhun": 670,
      "Ġwerk": 671,
      "Ġgaat": 672,
      "Ġweb": 673,
      "Ġdi": 674,
      "atuur": 675,
      "res": 676,
      "ogelijk": 677,
      "Ġ-": 678,
      "ann": 679,
      "Ġsn": 680,
      "Ġgaan": 681,
      "oog": 682,
      "Ġmoet": 683,
      "Ġzal": 684,
      "Ġzou": 685,
      "ĠEen": 686,
      "gt": 687,
      "ĠU": 688,
      "gel": 689,
      "Ġru": 690,
      "ink": 691,
      "Ġtegen": 692,
      "Ġnu": 693,
      "Ġged": 694,
      "ds": 695,
      "Ġkle": 696,
      "Ġsl": 697,
      "Ġgen": 698,
      "form": 699,
      ").": 700,
      "Ġex": 701,
      "Ġeigen": 702,
      "Ġro": 703,
      "..": 704,
      "est": 705,
      "Ġdus": 706,
      "Ġtijd": 707,
      "gr": 708,
      "bij": 709,
      "tijd": 710,
      "Ġtwee": 711,
      "mer": 712,
      "pp": 713,
      "Ġmogelijk": 714,
      "ui": 715,
      "beel": 716,
      "ĠâĢĺ": 717,
      "Ġben": 718,
      "ult": 719,
      "Ġcont": 720,
      "Ġwebs": 721,
      "van": 722,
      "ellen": 723,
      "ek": 724,
      "Ġbesch": 725,
      "Ġmensen": 726,
      "uid": 727,
      "Ġie": 728,
      "Ġnieuwe": 729,
      "schap": 730,
      "rijk": 731,
      "idd": 732,
      "werk": 733,
      "vol": 734,
      "Ġgel": 735,
      "iets": 736,
      "In": 737,
      "Ġ4": 738,
      "geb": 739,
      "ĠSt": 740,
      "oer": 741,
      "Ġkw": 742,
      "Ġhou": 743,
      "agen": 744,
      "ger": 745,
      "ect": 746,
      "ff": 747,
      "Ġman": 748,
      "Ġbeh": 749,
      "nem": 750,
      "aats": 751,
      "Ġpers": 752,
      "rouw": 753,
      "beeld": 754,
      "ber": 755,
      "Ġeven": 756,
      "Ġar": 757,
      "geven": 758,
      "Ġinter": 759,
      "rek": 760,
      "ĠJe": 761,
      "Ġkrij": 762,
      "illen": 763,
      "Ġhaar": 764,
      "Ġpr": 765,
      "Ġwerd": 766,
      "Ġvr": 767,
      "age": 768,
      "Ġdag": 769,
      "ust": 770,
      "onden": 771,
      "we": 772,
      "Ġheel": 773,
      "Ġbez": 774,
      "oet": 775,
      "oven": 776,
      "gens": 777,
      "ran": 778,
      "Ġverb": 779,
      "Ġleven": 780,
      "pt": 781,
      "Ġsamen": 782,
      "are": 783,
      "oren": 784,
      "ussen": 785,
      "Ġ5": 786,
      "Ġvin": 787,
      "ment": 788,
      "Ġhad": 789,
      "Ġthe": 790,
      "ost": 791,
      "ess": 792,
      "duct": 793,
      "ederland": 794,
      "Ġmoo": 795,
      "ĠDit": 796,
      "Ġecht": 797,
      "Ġsu": 798,
      "rijf": 799,
      "ijden": 800,
      "Ġblij": 801,
      "Ġ\"": 802,
      "Ġhel": 803,
      "ater": 804,
      "ĠDat": 805,
      "Ġzoals": 806,
      "aad": 807,
      "oeken": 808,
      "Ġdr": 809,
      "Ġkom": 810,
      "ĠDaar": 811,
      "Ġalleen": 812,
      "uiten": 813,
      "iden": 814,
      "maal": 815,
      "Ġverk": 816,
      "Ġstaat": 817,
      "ied": 818,
      "Ġvert": 819,
      "ass": 820,
      "Ġdoen": 821,
      "Ġbinnen": 822,
      "eem": 823,
      "dig": 824,
      "Ġeerste": 825,
      "erk": 826,
      "aast": 827,
      "ĠIk": 828,
      "Ã©n": 829,
      "stand": 830,
      "Ġaut": 831,
      "if": 832,
      "me": 833,
      "Ġnatuur": 834,
      "eerde": 835,
      "anc": 836,
      "elt": 837,
      "Ġhele": 838,
      "eling": 839,
      "Ġzorg": 840,
      "ron": 841,
      "ool": 842,
      "Ġmin": 843,
      "Ġaltijd": 844,
      "ragen": 845,
      "Ġelk": 846,
      "dien": 847,
      "ĠNederland": 848,
      "Ġth": 849,
      "ark": 850,
      "Ġbelang": 851,
      "Ġor": 852,
      "amer": 853,
      "heden": 854,
      "uro": 855,
      "Ġkomen": 856,
      "Ġlaat": 857,
      "erv": 858,
      "Ġvia": 859,
      "kend": 860,
      "Ġlang": 861,
      "tal": 862,
      "zelf": 863,
      "Ġzien": 864,
      "akk": 865,
      "ĠMaar": 866,
      "Ġgeh": 867,
      "all": 868,
      "kom": 869,
      "ud": 870,
      "ood": 871,
      "unt": 872,
      "Ġverschillen": 873,
      "nt": 874,
      "ation": 875,
      "Ġzw": 876,
      "Ġvrij": 877,
      "ders": 878,
      "ode": 879,
      "Ġlig": 880,
      "Ġgele": 881,
      "ov": 882,
      "Ġvl": 883,
      "Ġterug": 884,
      "Ġact": 885,
      "itie": 886,
      "ikk": 887,
      "aties": 888,
      "Ã¯": 889,
      "ocht": 890,
      "âĢĿ": 891,
      "cc": 892,
      "Ġwebsite": 893,
      "oep": 894,
      "ĠEr": 895,
      "anten": 896,
      "Ġsnel": 897,
      "arm": 898,
      "osten": 899,
      "Ġverh": 900,
      "odig": 901,
      "av": 902,
      "ruk": 903,
      "Ġieder": 904,
      "line": 905,
      "ow": 906,
      "anden": 907,
      "Ġhuis": 908,
      "Ġzit": 909,
      "Ġhand": 910,
      "Ġden": 911,
      "Ġprob": 912,
      "'s": 913,
      "Ġproduct": 914,
      "Ġtoch": 915,
      "ob": 916,
      "Ġlaten": 917,
      "ĠDeze": 918,
      "Ġgoe": 919,
      "Ġgrote": 920,
      "int": 921,
      "Al": 922,
      "enten": 923,
      "eu": 924,
      "zien": 925,
      "lijke": 926,
      "Ġgroot": 927,
      "cl": 928,
      "etten": 929,
      "Ġmij": 930,
      "Ġiets": 931,
      "Ġtussen": 932,
      "Ġinform": 933,
      "Ġ6": 934,
      "ĠÃ©": 935,
      "ard": 936,
      "oeg": 937,
      "ĠâĢĵ": 938,
      "oort": 939,
      "Ġverschillende": 940,
      "ss": 941,
      "Ġ'": 942,
      "ert": 943,
      "rijs": 944,
      "Ġkinder": 945,
      "Ġad": 946,
      "Ġomdat": 947,
      "ullen": 948,
      "aart": 949,
      "ĠWe": 950,
      "oof": 951,
      "Ġweten": 952,
      "Ġbie": 953,
      "Ġeens": 954,
      "otel": 955,
      "Ġkomt": 956,
      "anis": 957,
      "eert": 958,
      "ĠOp": 959,
      "Ġher": 960,
      "iel": 961,
      "pro": 962,
      "Ġgesch": 963,
      "ade": 964,
      "cent": 965,
      "ook": 966,
      "atis": 967,
      "ens": 968,
      "eest": 969,
      "Ġstee": 970,
      "Ġapp": 971,
      "Ġbew": 972,
      "ĠBij": 973,
      "ĠAls": 974,
      "anneer": 975,
      "antie": 976,
      "ĠOok": 977,
      "ject": 978,
      "ce": 979,
      "Ġbelangrijk": 980,
      "ont": 981,
      "woord": 982,
      "Ġpart": 983,
      "Ġmoeten": 984,
      "komen": 985,
      "nl": 986,
      "iss": 987,
      "allen": 988,
      "Ġlu": 989,
      "Ġweg": 990,
      "Ġch": 991,
      "Ġ19": 992,
      "voorbeeld": 993,
      "dag": 994,
      "wel": 995,
      "ina": 996,
      "Ġverl": 997,
      "omm": 998,
      "amp": 999,
      "zicht": 1000,
      "door": 1001,
      "ub": 1002,
      "Ġnodig": 1003,
      "Ġgoede": 1004,
      "ĠÃ©Ã©n": 1005,
      "eft": 1006,
      "Ġbedrijf": 1007,
      "Ġinformatie": 1008,
      "Ġmoe": 1009,
      "Ġachter": 1010,
      "Ġzij": 1011,
      "onen": 1012,
      "wikk": 1013,
      "Ġverw": 1014,
      "au": 1015,
      "over": 1016,
      "Ġfot": 1017,
      "Een": 1018,
      "Ġvak": 1019,
      "Ik": 1020,
      "tu": 1021,
      "Ġple": 1022,
      "Ġ200": 1023,
      "Ġruim": 1024,
      "erm": 1025,
      "Ġopen": 1026,
      "Ġplaats": 1027,
      "ding": 1028,
      "ijf": 1029,
      "Ġinst": 1030,
      "Ġbeste": 1031,
      "ame": 1032,
      "Ġvind": 1033,
      "Ġzeer": 1034,
      "ijdens": 1035,
      "Ġsteeds": 1036,
      "deel": 1037,
      "Ġsle": 1038,
      "rijven": 1039,
      "Ġhem": 1040,
      "Ġelkaar": 1041,
      "Ġverg": 1042,
      "ijken": 1043,
      "ill": 1044,
      "ĠVoor": 1045,
      "ĠâĢľ": 1046,
      "ef": 1047,
      "ĠY": 1048,
      "arkt": 1049,
      "Ġdeel": 1050,
      "eek": 1051,
      "olle": 1052,
      "ĠCh": 1053,
      "Ġmeest": 1054,
      "ĠMet": 1055,
      "iken": 1056,
      "net": 1057,
      "ieren": 1058,
      "ari": 1059,
      "Ġstr": 1060,
      "Ġdire": 1061,
      "bare": 1062,
      "ure": 1063,
      "tra": 1064,
      "Ġaantal": 1065,
      "ĠOn": 1066,
      "aliteit": 1067,
      "bel": 1068,
      "ri": 1069,
      "Ġnet": 1070,
      "iding": 1071,
      "ergie": 1072,
      "Ġvinden": 1073,
      "Ġmag": 1074,
      "Ġ10": 1075,
      "Ġhoog": 1076,
      "gem": 1077,
      "Ġhebt": 1078,
      "Ġgemaakt": 1079,
      "ive": 1080,
      "Ġvaak": 1081,
      "Ġonline": 1082,
      "ĠZo": 1083,
      "Ġra": 1084,
      "emen": 1085,
      "ice": 1086,
      "Ġwerken": 1087,
      "Ġzeker": 1088,
      "Ġalles": 1089,
      "Ġzonder": 1090,
      "Ġenk": 1091,
      "ikt": 1092,
      "rit": 1093,
      "Ġdien": 1094,
      "Ġvast": 1095,
      "deren": 1096,
      "Ġjouw": 1097,
      "br": 1098,
      "Ġ8": 1099,
      "aas": 1100,
      "aald": 1101,
      "Ġverz": 1102,
      "ggen": 1103,
      "Ġken": 1104,
      "Ġkeer": 1105,
      "Ġcomp": 1106,
      "Ġbev": 1107,
      "Ġverder": 1108,
      "app": 1109,
      "orgen": 1110,
      "Ġtra": 1111,
      "20": 1112,
      "Ġgek": 1113,
      "ull": 1114,
      "elling": 1115,
      "Ġvorm": 1116,
      "Ġmaakt": 1117,
      "Ġbijvoorbeeld": 1118,
      "Ġspec": 1119,
      "Ġou": 1120,
      "oem": 1121,
      "Ġlever": 1122,
      "Ġgeven": 1123,
      "Ġuur": 1124,
      "achten": 1125,
      "Ġpersoon": 1126,
      "Ġmil": 1127,
      "Ġzon": 1128,
      "ichting": 1129,
      "Ġkinderen": 1130,
      "ay": 1131,
      "Ġbent": 1132,
      "Ġbuiten": 1133,
      "alis": 1134,
      "Ġwereld": 1135,
      "Ġontwikk": 1136,
      "Ġart": 1137,
      "Ġminder": 1138,
      "oten": 1139,
      "Ġgraag": 1140,
      "sy": 1141,
      "na": 1142,
      "oot": 1143,
      "âĤ": 1144,
      "âĤ¬": 1145,
      "eur": 1146,
      "iaal": 1147,
      "one": 1148,
      "Ġrecht": 1149,
      "ack": 1150,
      "houden": 1151,
      "Ġmooi": 1152,
      "Ġmis": 1153,
      "Ġaanb": 1154,
      "off": 1155,
      "Ġorg": 1156,
      "iz": 1157,
      "Ġ7": 1158,
      "Ġjaren": 1159,
      "gest": 1160,
      "Ġerg": 1161,
      "Ġwant": 1162,
      "Ġboven": 1163,
      "Ġbep": 1164,
      "Ġstaan": 1165,
      "ctie": 1166,
      "ĠVan": 1167,
      "Ġprof": 1168,
      "mee": 1169,
      "ans": 1170,
      "ong": 1171,
      "ĠAn": 1172,
      "qu": 1173,
      "vl": 1174,
      "Ġ[": 1175,
      "Ġpre": 1176,
      "Ġand": 1177,
      "ster": 1178,
      "Ġaange": 1179,
      "ĠHij": 1180,
      "Ġboek": 1181,
      "Ġgesp": 1182,
      "Ġwillen": 1183,
      "Ġgebruikt": 1184,
      "Als": 1185,
      "com": 1186,
      "chn": 1187,
      "vers": 1188,
      "eil": 1189,
      "th": 1190,
      "yp": 1191,
      "Ġbere": 1192,
      "urg": 1193,
      "Ġgratis": 1194,
      "Ġgewoon": 1195,
      "ire": 1196,
      "sh": 1197,
      "Ġsy": 1198,
      "Ġorganis": 1199,
      "Ġerv": 1200,
      "Ġreg": 1201,
      "king": 1202,
      "asis": 1203,
      "ĠVer": 1204,
      "zoek": 1205,
      "Ġide": 1206,
      "Ġger": 1207,
      "iging": 1208,
      "rag": 1209,
      "Ġproble": 1210,
      "zet": 1211,
      "Ġvolgen": 1212,
      "Ġcontact": 1213,
      "doen": 1214,
      "Ġder": 1215,
      "Ġwelke": 1216,
      "Ġligt": 1217,
      "aken": 1218,
      "),": 1219,
      "IN": 1220,
      "Ġwon": 1221,
      "Ġzodat": 1222,
      "Ġrond": 1223,
      "Ġfoto": 1224,
      "ach": 1225,
      "midd": 1226,
      "eter": 1227,
      "etje": 1228,
      "Ġverm": 1229,
      "los": 1230,
      "raag": 1231,
      "Ġwaren": 1232,
      "igd": 1233,
      "arte": 1234,
      "urs": 1235,
      "ĠSch": 1236,
      "gd": 1237,
      "kker": 1238,
      "Ġnemen": 1239,
      "geving": 1240,
      "veel": 1241,
      "kende": 1242,
      "assen": 1243,
      "Ġres": 1244,
      "gaan": 1245,
      "Ġvragen": 1246,
      "Ġkeu": 1247,
      "Ġprijs": 1248,
      "Ġvraag": 1249,
      "akkelijk": 1250,
      "uten": 1251,
      "ĠâĤ¬": 1252,
      "str": 1253,
      "Ġzullen": 1254,
      "Ġkon": 1255,
      "Ġvolle": 1256,
      "Ġmanier": 1257,
      "staan": 1258,
      "room": 1259,
      "Ġland": 1260,
      "houd": 1261,
      "nis": 1262,
      "ieke": 1263,
      "ign": 1264,
      "igheid": 1265,
      "rum": 1266,
      "ĠSp": 1267,
      "EN": 1268,
      "Ġbesl": 1269,
      "Ġrel": 1270,
      "Ġkrijgen": 1271,
      "naast": 1272,
      "Ġele": 1273,
      "elde": 1274,
      "Ġtijdens": 1275,
      "Ġzelfs": 1276,
      "Ġextra": 1277,
      "io": 1278,
      "uin": 1279,
      "Ġmom": 1280,
      "Ġwater": 1281,
      "oofd": 1282,
      "les": 1283,
      "aring": 1284,
      "ĠWij": 1285,
      "akken": 1286,
      "gevens": 1287,
      "Ġslecht": 1288,
      "Ġstad": 1289,
      "Ġleuk": 1290,
      "Ġnatuurlijk": 1291,
      "bouw": 1292,
      "man": 1293,
      "voer": 1294,
      "ante": 1295,
      "iÃ«le": 1296,
      "ep": 1297,
      "Ġbr": 1298,
      "Ġopt": 1299,
      "Ġweet": 1300,
      "gram": 1301,
      "Ġhouden": 1302,
      "eken": 1303,
      "kken": 1304,
      "ving": 1305,
      "reken": 1306,
      "amelijk": 1307,
      "ĠHier": 1308,
      "!!": 1309,
      "gele": 1310,
      "Ġkosten": 1311,
      "ĠBe": 1312,
      "Ġauto": 1313,
      "co": 1314,
      "Ġbasis": 1315,
      "Ġgeeft": 1316,
      "Ġverd": 1317,
      "und": 1318,
      "uurt": 1319,
      "zelfde": 1320,
      "mand": 1321,
      "waar": 1322,
      "ate": 1323,
      "Ġenergie": 1324,
      "reven": 1325,
      "olog": 1326,
      "ick": 1327,
      "gang": 1328,
      "Ġeind": 1329,
      "Ġten": 1330,
      "Ġfil": 1331,
      "Ġlekker": 1332,
      "ulp": 1333,
      "con": 1334,
      "mp": 1335,
      "Ġvooral": 1336,
      "Ġrest": 1337,
      "ĠPro": 1338,
      "Ġartik": 1339,
      "agina": 1340,
      "ooit": 1341,
      "air": 1342,
      "end": 1343,
      "iend": 1344,
      "Ġgemeen": 1345,
      "ress": 1346,
      "ader": 1347,
      "bin": 1348,
      "ins": 1349,
      "Ġga": 1350,
      "Ġopge": 1351,
      "ium": 1352,
      "pr": 1353,
      "Ġbren": 1354,
      "Ġtoen": 1355,
      "Ġjij": 1356,
      "ijkt": 1357,
      "oms": 1358,
      "ruiken": 1359,
      "Ġbeter": 1360,
      "Ġdirect": 1361,
      "Ġ.": 1362,
      "Ġim": 1363,
      "Ġhotel": 1364,
      "Ġechter": 1365,
      "Ġeff": 1366,
      "Ġpaar": 1367,
      "dere": 1368,
      "Ġmens": 1369,
      "erecht": 1370,
      "Ġmooie": 1371,
      "Ġhelpen": 1372,
      "Ġweek": 1373,
      "Ġcolle": 1374,
      "Ġbeschik": 1375,
      "komst": 1376,
      "Ġrij": 1377,
      "Ġdoel": 1378,
      "Ġwit": 1379,
      "Ġgl": 1380,
      "Ġkie": 1381,
      "oorden": 1382,
      "Ġsm": 1383,
      "ĠBel": 1384,
      "Ġblijven": 1385,
      "Ġhelemaal": 1386,
      "Op": 1387,
      "get": 1388,
      "sk": 1389,
      "Ġber": 1390,
      "isten": 1391,
      "ER": 1392,
      "oelen": 1393,
      "vang": 1394,
      "Ġdagen": 1395,
      "orie": 1396,
      "Ġgest": 1397,
      "ĠBl": 1398,
      "Ġdoet": 1399,
      "Ġmidd": 1400,
      "ĠAr": 1401,
      "Ġproject": 1402,
      "ĠZe": 1403,
      "Ġplaat": 1404,
      "Ġmoment": 1405,
      "ler": 1406,
      "ord": 1407,
      "steem": 1408,
      "Ġwanneer": 1409,
      "Ġnooit": 1410,
      "Ġun": 1411,
      "ijnen": 1412,
      "antwoord": 1413,
      "ĠGod": 1414,
      "000": 1415,
      "Ġmaand": 1416,
      "oopt": 1417,
      "ervice": 1418,
      "vin": 1419,
      "zonder": 1420,
      "stelling": 1421,
      "elden": 1422,
      "Ġacc": 1423,
      "Ġpol": 1424,
      "Ġlicht": 1425,
      "Ġvindt": 1426,
      "Ġenkele": 1427,
      "gramma": 1428,
      "ax": 1429,
      "cte": 1430,
      "oge": 1431,
      "Ġvis": 1432,
      "Ġmaat": 1433,
      "Ġvanaf": 1434,
      "Ġpracht": 1435,
      "Ġ12": 1436,
      "Ġwerkt": 1437,
      "hand": 1438,
      "Ġdruk": 1439,
      "plaat": 1440,
      "50": 1441,
      "aden": 1442,
      "ga": 1443,
      "zij": 1444,
      "elingen": 1445,
      "Ġab": 1446,
      "Ġsc": 1447,
      "ĠLe": 1448,
      "huis": 1449,
      "ubl": 1450,
      "Ġkrijgt": 1451,
      "mat": 1452,
      "vou": 1453,
      "zaam": 1454,
      "Ġduid": 1455,
      "igh": 1456,
      "ĠDan": 1457,
      "zeker": 1458,
      "schien": 1459,
      "atief": 1460,
      "oos": 1461,
      "ĠOm": 1462,
      "Ġafge": 1463,
      "Ġgrond": 1464,
      "Ġwilt": 1465,
      "iteiten": 1466,
      "Ġiedereen": 1467,
      "Ġbieden": 1468,
      "burg": 1469,
      "our": 1470,
      "Ġ0": 1471,
      "ende": 1472,
      "Ġwink": 1473,
      "ons": 1474,
      "Ġlief": 1475,
      "Ġste": 1476,
      "Ġgebruiken": 1477,
      "bed": 1478,
      "Ġgeval": 1479,
      "Ġmede": 1480,
      "ha": 1481,
      "uz": 1482,
      "orp": 1483,
      "aalde": 1484,
      "wijs": 1485,
      "Ġelke": 1486,
      "Ġzwem": 1487,
      "ering": 1488,
      "Ġgeld": 1489,
      "Ġtop": 1490,
      "Ġzom": 1491,
      "Ġaanv": 1492,
      "Ġcent": 1493,
      "Ġwerden": 1494,
      "werken": 1495,
      "oden": 1496,
      "oeren": 1497,
      "Ġ&": 1498,
      "Ġbre": 1499,
      "Ġkort": 1500,
      "ity": 1501,
      "Ġomgeving": 1502,
      "sche": 1503,
      "use": 1504,
      "Ġ14": 1505,
      "ĠWat": 1506,
      "Ġanders": 1507,
      "...": 1508,
      "Ġblijft": 1509,
      "urop": 1510,
      "Ġlaatste": 1511,
      "loss": 1512,
      "ube": 1513,
      "ateg": 1514,
      "Ġbestaat": 1515,
      "uizen": 1516,
      "nemers": 1517,
      "Ġdrie": 1518,
      "ces": 1519,
      "ial": 1520,
      "ogen": 1521,
      "Ġhoofd": 1522,
      "Ġget": 1523,
      "Ġster": 1524,
      "ieten": 1525,
      "entie": 1526,
      "ĠAm": 1527,
      "Ġvrouw": 1528,
      "Ġsh": 1529,
      "Deze": 1530,
      "Ġlucht": 1531,
      "Ġeuro": 1532,
      "ijna": 1533,
      "Ġstuk": 1534,
      "aanse": 1535,
      "ake": 1536,
      "ĠGe": 1537,
      "Ġbiedt": 1538,
      "ib": 1539,
      "kamer": 1540,
      "Ġveil": 1541,
      "ieden": 1542,
      "Ġkn": 1543,
      "ites": 1544,
      "ome": 1545,
      "ĠDie": 1546,
      "icatie": 1547,
      "Ġschool": 1548,
      "Ġkleine": 1549,
      "Er": 1550,
      "ph": 1551,
      "weg": 1552,
      "erie": 1553,
      "ĠDoor": 1554,
      "ĠThe": 1555,
      "inds": 1556,
      "Voor": 1557,
      "aars": 1558,
      "Ġople": 1559,
      "ooi": 1560,
      "Ġbeteken": 1561,
      "Ġmilj": 1562,
      "Wat": 1563,
      "ner": 1564,
      "Ġeten": 1565,
      "ange": 1566,
      "Ġstand": 1567,
      "amil": 1568,
      "ras": 1569,
      "Ġuitge": 1570,
      "Ġkunst": 1571,
      "Ġonderzoek": 1572,
      "Ġklanten": 1573,
      "Ġthuis": 1574,
      "Ġartikel": 1575,
      "tre": 1576,
      "Ġhuid": 1577,
      "Ġzoek": 1578,
      "alt": 1579,
      "Ġbek": 1580,
      "Ġvoorzien": 1581,
      "unten": 1582,
      "Ġvor": 1583,
      "Ġdes": 1584,
      "aling": 1585,
      "Ġdaarom": 1586,
      "Ġkwaliteit": 1587,
      "Ġinternet": 1588,
      "Ġvakantie": 1589,
      "ĠYou": 1590,
      "Ġ9": 1591,
      "Ġsite": 1592,
      "Ġsuper": 1593,
      "nieuw": 1594,
      "Ġy": 1595,
      "Ġtele": 1596,
      "Ġverander": 1597,
      "Ġwaarin": 1598,
      "Ġallemaal": 1599,
      "vest": 1600,
      "Ġgroe": 1601,
      "Ġcombin": 1602,
      "rekken": 1603,
      "Ġgemeente": 1604,
      "daag": 1605,
      "annen": 1606,
      "ijen": 1607,
      "Ġwarm": 1608,
      "its": 1609,
      "ĠMar": 1610,
      "Ġklant": 1611,
      "iÃ«n": 1612,
      "uist": 1613,
      "Ġvier": 1614,
      "ett": 1615,
      "Ġpark": 1616,
      "Ġfin": 1617,
      "ionele": 1618,
      "Ġeerst": 1619,
      "Ġminuten": 1620,
      "Ġadv": 1621,
      "Ġresult": 1622,
      "Tube": 1623,
      "Ġervoor": 1624,
      "Ġgebied": 1625,
      "Ġzorgt": 1626,
      "Ġelekt": 1627,
      "az": 1628,
      "Ġan": 1629,
      "Ġhart": 1630,
      "Ġmed": 1631,
      "Ġbijna": 1632,
      "Ġjou": 1633,
      "Ġbekend": 1634,
      "ĠRe": 1635,
      "Ġgezien": 1636,
      "her": 1637,
      "iele": 1638,
      "ets": 1639,
      "Ġheer": 1640,
      "stel": 1641,
      "leg": 1642,
      "Ġ15": 1643,
      "ĠVol": 1644,
      "ichten": 1645,
      "uiste": 1646,
      "vangen": 1647,
      "Ġnamelijk": 1648,
      "Ġtek": 1649,
      "Ġniets": 1650,
      "ase": 1651,
      "Ġwaarbij": 1652,
      "Ġeffect": 1653,
      "ON": 1654,
      "ute": 1655,
      "Ġhe": 1656,
      "ator": 1657,
      "Ġsoms": 1658,
      "derd": 1659,
      "aalt": 1660,
      "Ġzeggen": 1661,
      "TI": 1662,
      "bo": 1663,
      "kl": 1664,
      "mm": 1665,
      "ple": 1666,
      "pers": 1667,
      "Ġvide": 1668,
      "Ġblijk": 1669,
      "Ġvanuit": 1670,
      "Ġkant": 1671,
      "itu": 1672,
      "Ġeenvou": 1673,
      "olen": 1674,
      "ĠHoe": 1675,
      "asten": 1676,
      "Ġmeeste": 1677,
      "--": 1678,
      "Ġongev": 1679,
      "verse": 1680,
      "Ġcre": 1681,
      "ĠEurop": 1682,
      "Ġwaardoor": 1683,
      "Ġgedaan": 1684,
      "Ġiemand": 1685,
      "Ġbezoek": 1686,
      "Ġproducten": 1687,
      "ullie": 1688,
      "Ġorganisatie": 1689,
      "aur": 1690,
      "druk": 1691,
      "ieu": 1692,
      "ieken": 1693,
      "ieve": 1694,
      "Ġpop": 1695,
      "oef": 1696,
      "Ġteam": 1697,
      "eed": 1698,
      "Ġloc": 1699,
      "out": 1700,
      "ese": 1701,
      "oenen": 1702,
      "Ġklein": 1703,
      "euw": 1704,
      "Ġbouw": 1705,
      "Ġsoort": 1706,
      "Ġjuiste": 1707,
      "Ġstellen": 1708,
      "otels": 1709,
      "Ġgroep": 1710,
      "Ġbestaan": 1711,
      "mail": 1712,
      "Ġbehand": 1713,
      "ĠDaarnaast": 1714,
      "Ġplek": 1715,
      "10": 1716,
      "Bij": 1717,
      "del": 1718,
      "oerd": 1719,
      "ene": 1720,
      "angen": 1721,
      "inst": 1722,
      "Ġkil": 1723,
      "Ġint": 1724,
      "Ġbeetje": 1725,
      "Ġlijkt": 1726,
      "Ġvoldoen": 1727,
      "Ġgevol": 1728,
      "ankelijk": 1729,
      "gelopen": 1730,
      "eks": 1731,
      "Ġkiezen": 1732,
      "Ġduidelijk": 1733,
      "ris": 1734,
      "Ġhulp": 1735,
      "Ġmarkt": 1736,
      "Ġkopen": 1737,
      "Ġtechn": 1738,
      "veren": 1739,
      "Ġfun": 1740,
      "Ġoff": 1741,
      "spro": 1742,
      "Ġrol": 1743,
      "Ġzitten": 1744,
      "Ġprobleem": 1745,
      "En": 1746,
      "Je": 1747,
      "Met": 1748,
      "Ġvele": 1749,
      "sterd": 1750,
      "onde": 1751,
      "opt": 1752,
      "ĠEl": 1753,
      "ember": 1754,
      "volgens": 1755,
      "aap": 1756,
      "Ġnaam": 1757,
      "Ġoploss": 1758,
      "Ġverv": 1759,
      "Ġcl": 1760,
      "ract": 1761,
      "Ġverhaal": 1762,
      "Ġwoning": 1763,
      "Ġvolledig": 1764,
      "ĠYouTube": 1765,
      "delen": 1766,
      "inn": 1767,
      "Ġpar": 1768,
      "raf": 1769,
      "Ġfamil": 1770,
      "rijzen": 1771,
      "ĠZw": 1772,
      "Ġgeheel": 1773,
      "Ġgeleden": 1774,
      "Ã¯nt": 1775,
      "Ġslechts": 1776,
      "ail": 1777,
      "oft": 1778,
      "up": 1779,
      "ucht": 1780,
      "won": 1781,
      "inig": 1782,
      "Ġoor": 1783,
      "Ġwie": 1784,
      "che": 1785,
      "Ġpagina": 1786,
      "Ġstap": 1787,
      "ĠWil": 1788,
      "iale": 1789,
      "Ġmogelijkheden": 1790,
      "Ġruimte": 1791,
      "sych": 1792,
      "Ġongeveer": 1793,
      "On": 1794,
      "ry": 1795,
      "sc": 1796,
      "Ġtre": 1797,
      "Ġkop": 1798,
      "Ġpos": 1799,
      "Ġbeper": 1800,
      "ruct": 1801,
      "Ġfl": 1802,
      "Ġlezen": 1803,
      "Ġ17": 1804,
      "werp": 1805,
      "Ġdiverse": 1806,
      "Ġidee": 1807,
      "Ġkeuze": 1808,
      "30": 1809,
      "ts": 1810,
      "Ġbele": 1811,
      "oemen": 1812,
      "Ġvers": 1813,
      "elijks": 1814,
      "Ġleu": 1815,
      "ĠTe": 1816,
      "ĠTh": 1817,
      "Ġvolgens": 1818,
      "Ã«n": 1819,
      "Ġeerder": 1820,
      "duc": 1821,
      "Ġkwam": 1822,
      "Ġvergelijk": 1823,
      "Ġkennis": 1824,
      "Ġvolgende": 1825,
      "We": 1826,
      "Ġdingen": 1827,
      "ore": 1828,
      "Ġmaan": 1829,
      "Ġneem": 1830,
      "âĢ¦": 1831,
      "Ġbetre": 1832,
      "wez": 1833,
      "Ġhadden": 1834,
      "clus": 1835,
      "sterdam": 1836,
      "aire": 1837,
      "rip": 1838,
      "Ġgere": 1839,
      "Ġtran": 1840,
      "Ġkijken": 1841,
      "Ġjullie": 1842,
      "Ġlich": 1843,
      "vert": 1844,
      "Ġfor": 1845,
      "Ġbijzonder": 1846,
      "Ġ24": 1847,
      "Ġbegin": 1848,
      "Ġrust": 1849,
      "Ġkleur": 1850,
      "Ġtweede": 1851,
      "ovatie": 1852,
      "Ġdenken": 1853,
      "akt": 1854,
      "ck": 1855,
      "Ġduur": 1856,
      "Ġhoge": 1857,
      "strij": 1858,
      "Ġwen": 1859,
      "Ġcult": 1860,
      "Ġreden": 1861,
      "ĠGr": 1862,
      "ĠOf": 1863,
      "Ġspeel": 1864,
      "ĠAlle": 1865,
      "ente": 1866,
      "Ġdelen": 1867,
      "ijs": 1868,
      "isc": 1869,
      "Ġkre": 1870,
      "Ġne": 1871,
      "Ġgegevens": 1872,
      "omp": 1873,
      "Ġstij": 1874,
      "amers": 1875,
      "Ġsport": 1876,
      "Ġmogen": 1877,
      "abel": 1878,
      "Ġeigenlijk": 1879,
      "cces": 1880,
      "Ġfinanc": 1881,
      "jaar": 1882,
      "sel": 1883,
      "vel": 1884,
      "ern": 1885,
      "inde": 1886,
      "Ġav": 1887,
      "Ġziet": 1888,
      "Ġlopen": 1889,
      "ction": 1890,
      "schrij": 1891,
      "wijl": 1892,
      "Ġbrengen": 1893,
      "Ġvideo": 1894,
      "ES": 1895,
      "Ġinge": 1896,
      "Ġfe": 1897,
      "imeerde": 1898,
      "Ġzegt": 1899,
      "Ġafstand": 1900,
      "aakte": 1901,
      "aardig": 1902,
      "schapp": 1903,
      "werking": 1904,
      "Ġbeschikbaar": 1905,
      "Ġelektr": 1906,
      "Ġmaanden": 1907,
      "berg": 1908,
      "min": 1909,
      "och": 1910,
      "Ġet": 1911,
      "Ġvandaag": 1912,
      "Ġkracht": 1913,
      "lex": 1914,
      "eeuw": 1915,
      "Ġprachtige": 1916,
      "Dit": 1917,
      "ain": 1918,
      "val": 1919,
      "Ġzetten": 1920,
      "Ġzorgen": 1921,
      "Ġpubl": 1922,
      "geÃ¯nt": 1923,
      "okk": 1924,
      "Ġ11": 1925,
      "Ġcons": 1926,
      "afel": 1927,
      "Ġcomm": 1928,
      "Ġperf": 1929,
      "Ġliggen": 1930,
      "geÃ¯ntimeerde": 1931,
      "Ã¨": 1932,
      "erde": 1933,
      "Ġbuurt": 1934,
      "Ġgelijk": 1935,
      "iew": 1936,
      "Ġacht": 1937,
      "Ġkor": 1938,
      "Ġkaart": 1939,
      "Ġbeeld": 1940,
      "Ġaanwez": 1941,
      "ĠNa": 1942,
      "Ġwaarde": 1943,
      "Ġprogramma": 1944,
      "Ġafgelopen": 1945,
      "Ġmoder": 1946,
      "slag": 1947,
      "Ġbedrijven": 1948,
      "merik": 1949,
      "Ġwinkel": 1950,
      "ĠAmsterdam": 1951,
      "hop": 1952,
      "met": 1953,
      "vorm": 1954,
      "Ġging": 1955,
      "atten": 1956,
      "Ġverwij": 1957,
      "verd": 1958,
      "Ġdating": 1959,
      "oud": 1960,
      "Ġuitgeb": 1961,
      "Ġweinig": 1962,
      "spect": 1963,
      "Ġkans": 1964,
      "Ġpriv": 1965,
      "Ġmisschien": 1966,
      "Ġzomer": 1967,
      "Van": 1968,
      "ount": 1969,
      "ys": 1970,
      "Ġboeken": 1971,
      "ree": 1972,
      "Ġleren": 1973,
      "Ġcor": 1974,
      "Ġfiets": 1975,
      "Ġzowel": 1976,
      "werkt": 1977,
      "ĠFr": 1978,
      "ips": 1979,
      "Ġgeweld": 1980,
      "ĠNederlandse": 1981,
      "ĠBelg": 1982,
      "ww": 1983,
      "Ġvoed": 1984,
      "Ġhal": 1985,
      "Ġmakkelijk": 1986,
      "ĠDuit": 1987,
      "ellingen": 1988,
      "Ġgenoeg": 1989,
      "Ġgenieten": 1990,
      "Ġactiv": 1991,
      "cept": 1992,
      "iveau": 1993,
      "Ġleuke": 1994,
      "Wij": 1995,
      "dacht": 1996,
      "dracht": 1997,
      "oh": 1998,
      "raak": 1999,
      "orden": 2000,
      "Ġenige": 2001,
      "ees": 2002,
      "ilijk": 2003,
      "oll": 2004,
      "ĠHotel": 2005,
      "uss": 2006,
      "Ġ100": 2007,
      "Ġgebeur": 2008,
      "eenkomst": 2009,
      "Ġervaring": 2010,
      "vinc": 2011,
      "Ġeenvoudig": 2012,
      "aut": 2013,
      "tje": 2014,
      "ijst": 2015,
      "Ġkru": 2016,
      "Ġgep": 2017,
      "Ġsoc": 2018,
      "oekt": 2019,
      "genomen": 2020,
      "Ġstart": 2021,
      "Ġgroter": 2022,
      "oogle": 2023,
      "Ġechte": 2024,
      "Ġdienst": 2025,
      "Ġpopul": 2026,
      "Om": 2027,
      "dige": 2028,
      "Ġbru": 2029,
      "Ġeeuw": 2030,
      "recht": 2031,
      "Ġ18": 2032,
      "Ġweken": 2033,
      "ĠCan": 2034,
      "Ġonderste": 2035,
      "beh": 2036,
      "Ġpersonen": 2037,
      "Ġsucces": 2038,
      "aus": 2039,
      "Ġtoek": 2040,
      "att": 2041,
      "Ġzoeken": 2042,
      "Ġverst": 2043,
      "omst": 2044,
      "ruim": 2045,
      "Ġreken": 2046,
      "Ġregel": 2047,
      "Ġ13": 2048,
      "Ġontde": 2049,
      "plaats": 2050,
      "Ġslag": 2051,
      "Ã¯n": 2052,
      "Ġgrootste": 2053,
      "Ġmoeilijk": 2054,
      "gesteld": 2055,
      "dit": 2056,
      "fort": 2057,
      "goed": 2058,
      "licht": 2059,
      "pan": 2060,
      "ratie": 2061,
      "Ġi": 2062,
      "Ġhuur": 2063,
      "leden": 2064,
      "reg": 2065,
      "Ġlast": 2066,
      "gew": 2067,
      "Ġstroom": 2068,
      "Ġleer": 2069,
      "Ġafsp": 2070,
      "Ġschil": 2071,
      "Ġontvang": 2072,
      "âĢĻ.": 2073,
      "actie": 2074,
      "uziek": 2075,
      "Ver": 2076,
      "Ġmot": 2077,
      "Ġap": 2078,
      "Ġlater": 2079,
      "Ġfijn": 2080,
      "Ġuiter": 2081,
      "Ġrec": 2082,
      "Ġreis": 2083,
      "anger": 2084,
      "ellante": 2085,
      "ologie": 2086,
      "Ġlocatie": 2087,
      "40": 2088,
      "auw": 2089,
      "ging": 2090,
      "ile": 2091,
      "zetten": 2092,
      "ÂŃ": 2093,
      "Ġhard": 2094,
      "ieven": 2095,
      "reden": 2096,
      "iger": 2097,
      "aris": 2098,
      "Ġstu": 2099,
      "ids": 2100,
      "ĠFl": 2101,
      "Ġconc": 2102,
      "sloten": 2103,
      "Ġhoeft": 2104,
      "schappen": 2105,
      "Ġkrijg": 2106,
      "ommige": 2107,
      "Ġprofess": 2108,
      "middels": 2109,
      "Ġlichaam": 2110,
      "OR": 2111,
      "di": 2112,
      "ix": 2113,
      "iode": 2114,
      "Ġhoor": 2115,
      "Ġnorm": 2116,
      "Ġnacht": 2117,
      "Ġjuist": 2118,
      "Ġlok": 2119,
      "Ġlink": 2120,
      "schijn": 2121,
      "Ġ16": 2122,
      "gevoerd": 2123,
      "standig": 2124,
      "Ġrestaur": 2125,
      "Ġkilom": 2126,
      "ah": 2127,
      "koop": 2128,
      "kosten": 2129,
      "Ġdicht": 2130,
      "stellen": 2131,
      "Ġwoon": 2132,
      "Ġgra": 2133,
      "Ġam": 2134,
      "Ġzat": 2135,
      "Ġprijzen": 2136,
      "oegen": 2137,
      "Ġvoort": 2138,
      "ĠAan": 2139,
      "ĠNoord": 2140,
      "Ġgevoel": 2141,
      "Ġgeluk": 2142,
      "gericht": 2143,
      "Ġhoogte": 2144,
      "Ġplaatsen": 2145,
      "ategorie": 2146,
      "Ġbetekent": 2147,
      "Ġtekst": 2148,
      "dr": 2149,
      "feer": 2150,
      "Ã³": 2151,
      "Ġ/": 2152,
      "Ġit": 2153,
      "Ġmerk": 2154,
      "Ġwand": 2155,
      "Ġbro": 2156,
      "Ġbad": 2157,
      "Ġpas": 2158,
      "urk": 2159,
      "ĠAmerik": 2160,
      "ime": 2161,
      "imaal": 2162,
      "Ġ21": 2163,
      "Ġterwijl": 2164,
      "Ġzouden": 2165,
      "Ġgelegen": 2166,
      "staande": 2167,
      "Ġtelef": 2168,
      "Ġuitgebre": 2169,
      "Ġtoekomst": 2170,
      "kant": 2171,
      "ox": 2172,
      "ose": 2173,
      "Ġdieren": 2174,
      "Ġvijf": 2175,
      "Ġble": 2176,
      "Ġzin": 2177,
      "Ġup": 2178,
      "eef": 2179,
      "ĠIs": 2180,
      "ĠNieuw": 2181,
      "ĠGoogle": 2182,
      "Ġproces": 2183,
      "Ġspelen": 2184,
      "Ġmob": 2185,
      "Ġmeerdere": 2186,
      "Ġontvangen": 2187,
      "Ġgeweest": 2188,
      "Ġgeschikt": 2189,
      "Ġappar": 2190,
      "Ġmiljoen": 2191,
      "Ġblijkt": 2192,
      "nation": 2193,
      "enen": 2194,
      "anen": 2195,
      "inter": 2196,
      "Ġpast": 2197,
      "Ġmeter": 2198,
      "Ġaanp": 2199,
      "Ġstem": 2200,
      "tem": 2201,
      "ash": 2202,
      "atieve": 2203,
      "Ġgebouw": 2204,
      "keur": 2205,
      "Ġmail": 2206,
      "Ġanderen": 2207,
      "Ġplan": 2208,
      "Ġ2017": 2209,
      "Ġlangs": 2210,
      "Ġvlie": 2211,
      "rift": 2212,
      "Ġmiddel": 2213,
      "Ġwarmte": 2214,
      "Dat": 2215,
      "Door": 2216,
      "cies": 2217,
      "rist": 2218,
      "uele": 2219,
      "vis": 2220,
      "Ġdorp": 2221,
      "Ġzie": 2222,
      "Ġkijk": 2223,
      "Ġkost": 2224,
      "Ġinsp": 2225,
      "Ġserie": 2226,
      "Ġvervolgens": 2227,
      "Ġvoorkomen": 2228,
      "Ġaandacht": 2229,
      "uni": 2230,
      "ames": 2231,
      "vent": 2232,
      "Ġuitv": 2233,
      "ĠBen": 2234,
      "erende": 2235,
      "Ġwaarvan": 2236,
      "asting": 2237,
      "Ġklim": 2238,
      "Ġvriend": 2239,
      "centrum": 2240,
      "Ġrestaurant": 2241,
      ".\"": 2242,
      "bele": 2243,
      "eind": 2244,
      "uil": 2245,
      "zijn": 2246,
      "ĠQ": 2247,
      "Ġdezelfde": 2248,
      "Ġbesp": 2249,
      "Ġverbl": 2250,
      "rol": 2251,
      "idden": 2252,
      "uli": 2253,
      "ister": 2254,
      "Ġnieuws": 2255,
      "nemen": 2256,
      "ific": 2257,
      "useum": 2258,
      "aste": 2259,
      "gro": 2260,
      "ivers": 2261,
      "erken": 2262,
      "Ġvond": 2263,
      "Ġterecht": 2264,
      "lei": 2265,
      "Ġpat": 2266,
      "Ġpap": 2267,
      "Ġsinds": 2268,
      "ĠEx": 2269,
      "Ġred": 2270,
      "ĠNiet": 2271,
      "ĠPl": 2272,
      "ateriaal": 2273,
      "Ġvormen": 2274,
      "19": 2275,
      "bad": 2276,
      "kop": 2277,
      "oy": 2278,
      "view": 2279,
      "Ġqu": 2280,
      "anu": 2281,
      "Ġoog": 2282,
      "Ġhog": 2283,
      "Ġhalen": 2284,
      "Ġdec": 2285,
      "iep": 2286,
      "Ġtuin": 2287,
      "onnen": 2288,
      "amine": 2289,
      "teel": 2290,
      "rakt": 2291,
      "school": 2292,
      "Ġzoveel": 2293,
      "ĠCl": 2294,
      "Ġren": 2295,
      "Ġklaar": 2296,
      "Ġ30": 2297,
      "Ġ2019": 2298,
      "werkers": 2299,
      "Ġhoudt": 2300,
      "Ġsub": 2301,
      "Ġdenk": 2302,
      "ĠOnder": 2303,
      "Ġsysteem": 2304,
      "matig": 2305,
      "Ġcombinatie": 2306,
      "fin": 2307,
      "mel": 2308,
      "markt": 2309,
      "Ġzaken": 2310,
      "Ġkamer": 2311,
      "Ġkrit": 2312,
      "dering": 2313,
      "Ġjong": 2314,
      "Ġverantwoord": 2315,
      "rokken": 2316,
      "Ġsterk": 2317,
      "tes": 2318,
      "Ġ25": 2319,
      "Ġwaarom": 2320,
      "Ġspel": 2321,
      "Ġcontract": 2322,
      "wege": 2323,
      "wezen": 2324,
      "gemeen": 2325,
      "Ġoude": 2326,
      "Ġoplossing": 2327,
      "Ook": 2328,
      "oit": 2329,
      "oom": 2330,
      "pe": 2331,
      "port": 2332,
      "ring": 2333,
      "zit": 2334,
      "Ġbi": 2335,
      "Ġzen": 2336,
      "iter": 2337,
      "Ġse": 2338,
      "Ġjon": 2339,
      "Ġbekende": 2340,
      "Ġlaag": 2341,
      "Ġlos": 2342,
      "vens": 2343,
      "Ġform": 2344,
      "ĠZij": 2345,
      "ummer": 2346,
      "Ġbetalen": 2347,
      "Ġgemakkelijk": 2348,
      "volle": 2349,
      "Ġbelangrijke": 2350,
      "schijnlijk": 2351,
      "Hoe": 2352,
      "Maar": 2353,
      "ks": 2354,
      "kig": 2355,
      "wijk": 2356,
      "Ġdou": 2357,
      "orn": 2358,
      "Ġwoord": 2359,
      "Ġenorm": 2360,
      "isme": 2361,
      "Ġpres": 2362,
      "unst": 2363,
      "Ġbegele": 2364,
      "Ġmogelijkheid": 2365,
      "rouwen": 2366,
      "Ġbepaalde": 2367,
      "Ġkeuken": 2368,
      "band": 2369,
      "mot": 2370,
      "oil": 2371,
      "zer": 2372,
      "Ġdo": 2373,
      "Ġha": 2374,
      "aaien": 2375,
      "stre": 2376,
      "Ġbal": 2377,
      "Ġkerk": 2378,
      "Ġinf": 2379,
      "Ġpijn": 2380,
      "Ġsec": 2381,
      "red": 2382,
      "oepen": 2383,
      "Ġaller": 2384,
      "Ġblog": 2385,
      "irc": 2386,
      "Ġgezond": 2387,
      "groep": 2388,
      "Ġenkel": 2389,
      "oemd": 2390,
      "Ġzonne": 2391,
      "Ġprecies": 2392,
      "Ġbekijken": 2393,
      "Ġcommun": 2394,
      "Ġkilometer": 2395,
      "ED": 2396,
      "bet": 2397,
      "iers": 2398,
      "tt": 2399,
      "ines": 2400,
      "Ġhen": 2401,
      "Ġhoop": 2402,
      "Ġmon": 2403,
      "stuk": 2404,
      "Ġass": 2405,
      "Ġzet": 2406,
      "Ġkind": 2407,
      "Ġkoff": 2408,
      "leven": 2409,
      "Ġsfeer": 2410,
      "rom": 2411,
      "Ġoverzicht": 2412,
      "ĠWel": 2413,
      "ĠVl": 2414,
      "erdag": 2415,
      "anning": 2416,
      "Ġgeldt": 2417,
      "Ġtrain": 2418,
      "Ġyou": 2419,
      "Ġkreeg": 2420,
      "\",": 2421,
      "12": 2422,
      "bal": 2423,
      "mers": 2424,
      "ps": 2425,
      "rik": 2426,
      "vr": 2427,
      "vallen": 2428,
      "yn": 2429,
      "Ġmuziek": 2430,
      "Ġwoorden": 2431,
      "Ġgar": 2432,
      "Ġsal": 2433,
      "Ġjuli": 2434,
      "verlen": 2435,
      "Ġuiteind": 2436,
      "Ġles": 2437,
      "ulier": 2438,
      "Ġmaart": 2439,
      "utt": 2440,
      "Ġtotaal": 2441,
      "sluit": 2442,
      "Ġgeworden": 2443,
      "Ġeventu": 2444,
      "menten": 2445,
      "ĠDaarom": 2446,
      "Ġlanger": 2447,
      "Ġmoest": 2448,
      "Ġstrand": 2449,
      "Ġpersoonlijke": 2450,
      "ype": 2451,
      "Ġproblemen": 2452,
      "iÃ«nten": 2453,
      "Ġactiviteiten": 2454,
      "ex": 2455,
      "hankelijk": 2456,
      "raal": 2457,
      "zier": 2458,
      "zorg": 2459,
      "Ġbar": 2460,
      "ath": 2461,
      "Ġind": 2462,
      "Ġinmiddels": 2463,
      "Ġges": 2464,
      "Ġverzeker": 2465,
      "gegevens": 2466,
      "iks": 2467,
      "okken": 2468,
      "ĠWanneer": 2469,
      "uld": 2470,
      "imp": 2471,
      "ĠFran": 2472,
      "Ġbegrij": 2473,
      "ĠUn": 2474,
      "Ġverwacht": 2475,
      "Ġleveren": 2476,
      "Ġfilm": 2477,
      "Ġpolitie": 2478,
      "Ġresultaat": 2479,
      "anuari": 2480,
      "oze": 2481,
      "uut": 2482,
      "wiss": 2483,
      "Ġvoel": 2484,
      "Ġvoer": 2485,
      "Ġvoet": 2486,
      "Ġwet": 2487,
      "Ġhetzelfde": 2488,
      "Ġjuni": 2489,
      "igde": 2490,
      "igingen": 2491,
      "Ġcategorie": 2492,
      "ĠAd": 2493,
      "ĠWaar": 2494,
      "Ġzei": 2495,
      "ĠKl": 2496,
      "sluiten": 2497,
      "Ġcomfort": 2498,
      "Ġnauw": 2499,
      "anks": 2500,
      "Ġgezell": 2501,
      "Ġbezig": 2502,
      "Ġ50": 2503,
      "akket": 2504,
      "Ġiedere": 2505,
      "Ġinstall": 2506,
      "appellante": 2507,
      "Ġgesprek": 2508,
      "bedrijf": 2509,
      "Ġhuidige": 2510,
      "Ġbezoekers": 2511,
      "ĠFrank": 2512,
      "ruimte": 2513,
      "AR": 2514,
      "kw": 2515,
      "kelijk": 2516,
      "lopen": 2517,
      "Ġ,": 2518,
      "ĠÃ": 2519,
      "elaar": 2520,
      "Ġbus": 2521,
      "Ġkar": 2522,
      "itt": 2523,
      "Ġnood": 2524,
      "Ġprakt": 2525,
      "Ġservice": 2526,
      "Ġja": 2527,
      "zegd": 2528,
      "Ġfiet": 2529,
      "akers": 2530,
      "Ġafbeeld": 2531,
      "ondag": 2532,
      "ĠInter": 2533,
      "abl": 2534,
      "Ġslaap": 2535,
      "Ġwebshop": 2536,
      "ĠBijbel": 2537,
      "Ġmeestal": 2538,
      "shop": 2539,
      "Ġbrand": 2540,
      "cteur": 2541,
      "plaatst": 2542,
      "Ġfamilie": 2543,
      "Ġfeit": 2544,
      "St": 2545,
      "het": 2546,
      "xe": 2547,
      "enk": 2548,
      "Ġvalt": 2549,
      "Ġaug": 2550,
      "atch": 2551,
      "Ġnaast": 2552,
      "Ġjanuari": 2553,
      "Ġloopt": 2554,
      "Ġaangeb": 2555,
      "Ġco": 2556,
      "isteren": 2557,
      "inding": 2558,
      "Ġmax": 2559,
      "ument": 2560,
      "Ġwilde": 2561,
      "maken": 2562,
      "baarheid": 2563,
      "Ġ40": 2564,
      "oster": 2565,
      "Ġbewust": 2566,
      "Ġprofiel": 2567,
      "Ġadvies": 2568,
      "Ġheerlijk": 2569,
      "Ġaanwezig": 2570,
      "uter": 2571,
      "ieel": 2572,
      "Ġtafel": 2573,
      "Ġneer": 2574,
      "Ġnad": 2575,
      "Ġnov": 2576,
      "Ġniveau": 2577,
      "igit": 2578,
      "Ġloop": 2579,
      "ĠMeer": 2580,
      "akantie": 2581,
      "iment": 2582,
      "ĠGro": 2583,
      "ĠLim": 2584,
      "Ġspra": 2585,
      "Ġschrijven": 2586,
      "Ġrijk": 2587,
      "Ġbeginnen": 2588,
      "broek": 2589,
      "Ġontwikkeling": 2590,
      "Ġvoldoende": 2591,
      "ructuur": 2592,
      "Ġneemt": 2593,
      "ble": 2594,
      "cont": 2595,
      "log": 2596,
      "punt": 2597,
      "ue": 2598,
      "Ġaard": 2599,
      "Ġol": 2600,
      "Ġogen": 2601,
      "Ġooit": 2602,
      "aaf": 2603,
      "Ġzicht": 2604,
      "aarde": 2605,
      "oorten": 2606,
      "Ġpo": 2607,
      "Ġmeteen": 2608,
      "ged": 2609,
      "olf": 2610,
      "rale": 2611,
      "ager": 2612,
      "tens": 2613,
      "Ġprocent": 2614,
      "arts": 2615,
      "Ġgevonden": 2616,
      "Ġperiode": 2617,
      "Ġwebsites": 2618,
      "nemer": 2619,
      "Ġautom": 2620,
      "Ġdiensten": 2621,
      "Ġliefde": 2622,
      "Ġmedewerkers": 2623,
      "Ġstandaard": 2624,
      "Ġtelefoon": 2625,
      "AC": 2626,
      "ient": 2627,
      "vrij": 2628,
      "Ġdro": 2629,
      "Ġdisc": 2630,
      "Ġvet": 2631,
      "Ġwee": 2632,
      "Ġkoop": 2633,
      "Ġpunt": 2634,
      "idt": 2635,
      "Ġuitste": 2636,
      "ĠBr": 2637,
      "ĠSn": 2638,
      "ĠItal": 2639,
      "Ġwaarmee": 2640,
      "ĠPh": 2641,
      "istische": 2642,
      "veil": 2643,
      "ĠJoh": 2644,
      "slagen": 2645,
      "iÃ«nt": 2646,
      "Ġkleuren": 2647,
      "Ġbescherm": 2648,
      "Ġhout": 2649,
      "arket": 2650,
      "ĠOnze": 2651,
      "Ġvrouwen": 2652,
      "mming": 2653,
      "Ġwensen": 2654,
      "Ġondersteun": 2655,
      "fl": 2656,
      "hal": 2657,
      "ning": 2658,
      "zie": 2659,
      "erst": 2660,
      "Ġvle": 2661,
      "Ġhor": 2662,
      "stof": 2663,
      "Ġtar": 2664,
      "Ġtro": 2665,
      "Ġsommige": 2666,
      "Ġopnieuw": 2667,
      "aringen": 2668,
      "Ġlid": 2669,
      "idingen": 2670,
      "oppen": 2671,
      "Ġleeft": 2672,
      "Ġoverheid": 2673,
      "ĠLu": 2674,
      "onds": 2675,
      "keken": 2676,
      "organis": 2677,
      "Ġmei": 2678,
      "gebruik": 2679,
      "Ġverbet": 2680,
      "ancier": 2681,
      "dienst": 2682,
      "Ġbedrijfs": 2683,
      "oemde": 2684,
      "Ġontwikkelen": 2685,
      "pril": 2686,
      "Ġcollega": 2687,
      "Ġsmart": 2688,
      "omein": 2689,
      "Ġcultuur": 2690,
      "Ġstuden": 2691,
      "13": 2692,
      "17": 2693,
      "ST": 2694,
      "ozen": 2695,
      "wor": 2696,
      "xt": 2697,
      "Ġwonen": 2698,
      "Ġbur": 2699,
      "Ġapril": 2700,
      "Ġzee": 2701,
      "Ġkm": 2702,
      "Ġnab": 2703,
      "Ġindien": 2704,
      "onnem": 2705,
      "Ġopdracht": 2706,
      "Ġlog": 2707,
      "Ġlange": 2708,
      "verzeker": 2709,
      "ograf": 2710,
      "Ġervan": 2711,
      "ĠJan": 2712,
      "Ġontwerp": 2713,
      "Ġdaarna": 2714,
      "plicht": 2715,
      "Ġinternation": 2716,
      "ustus": 2717,
      "Ġplezier": 2718,
      "aliseren": 2719,
      "izoen": 2720,
      "Ġbereiken": 2721,
      "Ġrijden": 2722,
      "iedenis": 2723,
      "schrijving": 2724,
      "Ġverantwoordelijk": 2725,
      "raad": 2726,
      "Ġdoe": 2727,
      "Ġhotels": 2728,
      "Ġbank": 2729,
      "Ġgasten": 2730,
      "ise": 2731,
      "Ġniks": 2732,
      "Ġgegeven": 2733,
      "Ġgezegd": 2734,
      "deeld": 2735,
      "igt": 2736,
      "verb": 2737,
      "ĠHou": 2738,
      "Ġbijd": 2739,
      "aker": 2740,
      "Ġontm": 2741,
      "Ġgedrag": 2742,
      "Ġexper": 2743,
      "Ġgeloof": 2744,
      "Ġprim": 2745,
      "Ġverkoop": 2746,
      "Ġspecial": 2747,
      "Ġmilieu": 2748,
      "conom": 2749,
      "Ġzaterdag": 2750,
      "Ġuiteindelijk": 2751,
      "Ġaugustus": 2752,
      "Ġnovember": 2753,
      ",-": 2754,
      "18": 2755,
      "AN": 2756,
      "ET": 2757,
      "bre": 2758,
      "bank": 2759,
      "lang": 2760,
      "name": 2761,
      "oad": 2762,
      "rie": 2763,
      "ram": 2764,
      "to": 2765,
      "veld": 2766,
      "wit": 2767,
      "Ġ?": 2768,
      "Ġantwoord": 2769,
      "Ġheen": 2770,
      "Ġtaal": 2771,
      "Ġagen": 2772,
      "Ġinzicht": 2773,
      "Ġinhoud": 2774,
      "lem": 2775,
      "regen": 2776,
      "igers": 2777,
      "ung": 2778,
      "olland": 2779,
      "schrift": 2780,
      "imale": 2781,
      "ĠNu": 2782,
      "sport": 2783,
      "ĠPar": 2784,
      "Ġrichting": 2785,
      "Ġdaarbij": 2786,
      "Ġtoegang": 2787,
      "Ġhoeveel": 2788,
      "Ġ2018": 2789,
      "Ġverschil": 2790,
      "pport": 2791,
      "ident": 2792,
      "ance": 2793,
      "âĢĿ,": 2794,
      "Ġaanbied": 2795,
      "Ġbetreft": 2796,
      "Ġperfect": 2797,
      "Ġlokale": 2798,
      "Ġkritiek": 2799,
      "ĠLimburg": 2800,
      "Ġnabij": 2801,
      "Wil": 2802,
      "huizen": 2803,
      "ict": 2804,
      "sf": 2805,
      "Ã¼": 2806,
      "Ġdier": 2807,
      "ors": 2808,
      "Ġbood": 2809,
      "Ġzacht": 2810,
      "Ġpsych": 2811,
      "Ġstud": 2812,
      "ĠHeb": 2813,
      "ĠAut": 2814,
      "icit": 2815,
      "ĠNe": 2816,
      "Ġwaarschijnlijk": 2817,
      "Ġonderhoud": 2818,
      "Ġonderwijs": 2819,
      "umenten": 2820,
      "omenteel": 2821,
      "Ġperson": 2822,
      "itieve": 2823,
      "Ġ199": 2824,
      "Ġwith": 2825,
      "ight": 2826,
      "derdaad": 2827,
      "ĠTho": 2828,
      "Ġkorte": 2829,
      "ĠprivÃ©": 2830,
      "Ġrekening": 2831,
      "regelen": 2832,
      "Ġsmartph": 2833,
      "'.": 2834,
      "EL": 2835,
      "boek": 2836,
      "par": 2837,
      "ret": 2838,
      "richt": 2839,
      "Ġ:": 2840,
      "Ġdub": 2841,
      "Ġtien": 2842,
      "Ġzondag": 2843,
      "Ġkr": 2844,
      "Ġgeg": 2845,
      "ĠDus": 2846,
      "old": 2847,
      "ĠBru": 2848,
      "ĠSP": 2849,
      "ĠWest": 2850,
      "ica": 2851,
      "ĠOver": 2852,
      "ĠCent": 2853,
      "Ġonderdeel": 2854,
      "Ġschade": 2855,
      "eens": 2856,
      "igens": 2857,
      "Ġdaarvan": 2858,
      "Ġbestellen": 2859,
      "Ġgemidd": 2860,
      "Ġgewicht": 2861,
      "ace": 2862,
      "Ġwijze": 2863,
      "Ġ2013": 2864,
      "Ġsnell": 2865,
      "gebied": 2866,
      "ffen": 2867,
      "wegen": 2868,
      "Ġhelpt": 2869,
      "Ġactie": 2870,
      "Ġadvert": 2871,
      "Ġbelangrijkste": 2872,
      "Ġverzam": 2873,
      "Ġlevert": 2874,
      "Ġbepalen": 2875,
      "Ġervaren": 2876,
      "Ġregio": 2877,
      "Ġbrengt": 2878,
      "haven": 2879,
      "Ġdesign": 2880,
      "clusief": 2881,
      "vincie": 2882,
      "Daar": 2883,
      "Zo": 2884,
      "bere": 2885,
      "dus": 2886,
      "gelijk": 2887,
      "jar": 2888,
      "kle": 2889,
      "Ġdon": 2890,
      "ini": 2891,
      "indt": 2892,
      "Ġdem": 2893,
      "Ġgod": 2894,
      "Ġko": 2895,
      "lement": 2896,
      "Ġsep": 2897,
      "Ġsitu": 2898,
      "Ġbevest": 2899,
      "chten": 2900,
      "role": 2901,
      "Ġlanden": 2902,
      "Ġleiden": 2903,
      "Ġwed": 2904,
      "ĠVeel": 2905,
      "Ġdank": 2906,
      "Ġspier": 2907,
      "istor": 2908,
      "Ġgeme": 2909,
      "Ġgedacht": 2910,
      "Ġcontent": 2911,
      "Ġinteress": 2912,
      "Ġverkrij": 2913,
      "arming": 2914,
      "Ġpartijen": 2915,
      "Ġwoningen": 2916,
      "Ġabonnem": 2917,
      "Ġparkeer": 2918,
      "----": 2919,
      "Ġbadkamer": 2920,
      "Ġhoger": 2921,
      "Ġkoffie": 2922,
      "vriend": 2923,
      "\".": 2924,
      "Be": 2925,
      "by": 2926,
      "sid": 2927,
      "wagen": 2928,
      "yl": 2929,
      "Ġdu": 2930,
      "Ġvre": 2931,
      "etter": 2932,
      "etail": 2933,
      "ijven": 2934,
      "Ġmidden": 2935,
      "Ġwh": 2936,
      "Ġtit": 2937,
      "Ġat": 2938,
      "Ġnot": 2939,
      "Ġinv": 2940,
      "Ġpassen": 2941,
      "Ġteken": 2942,
      "Ġverzen": 2943,
      "Ġstelt": 2944,
      "âĢľ": 2945,
      "Ġuitgevoerd": 2946,
      "Ġleden": 2947,
      "ici": 2948,
      "iciteit": 2949,
      "Ġris": 2950,
      "werpen": 2951,
      "aff": 2952,
      "Ġ2011": 2953,
      "Ġgezicht": 2954,
      "Ġlevens": 2955,
      "komt": 2956,
      "Ġvrijdag": 2957,
      "avond": 2958,
      "Ġpartij": 2959,
      "Ġpartner": 2960,
      "Ġcomputer": 2961,
      "Ġpersoonlijk": 2962,
      "Ġzwembad": 2963,
      "Ġstijl": 2964,
      "ĠAmerikaanse": 2965,
      "Ġverblijf": 2966,
      "Ġzenuw": 2967,
      "ift": 2968,
      "ly": 2969,
      "ober": 2970,
      "si": 2971,
      "water": 2972,
      "zo": 2973,
      "Ġant": 2974,
      "inden": 2975,
      "Ġmaakte": 2976,
      "Ġeinde": 2977,
      "Ġent": 2978,
      "ĠgeÃ¯n": 2979,
      "Ġpass": 2980,
      "Ġbeoord": 2981,
      "Ġlie": 2982,
      "Ġalgemeen": 2983,
      "erse": 2984,
      "ĠSim": 2985,
      "ĠWant": 2986,
      "ĠIT": 2987,
      "ico": 2988,
      "uurd": 2989,
      "tern": 2990,
      "peratuur": 2991,
      "Ġbelasting": 2992,
      "wijf": 2993,
      "ekijk": 2994,
      "agement": 2995,
      "Ġadres": 2996,
      "Ġrechts": 2997,
      "Ġcollectie": 2998,
      "Ġrenovatie": 2999,
      "Aan": 3000,
      "DA": 3001,
      "Vol": 3002,
      "loop": 3003,
      "toe": 3004,
      "Ã¶": 3005,
      "ijt": 3006,
      "Ġoud": 3007,
      "Ġdeur": 3008,
      "staat": 3009,
      "Ġtren": 3010,
      "Ġkamers": 3011,
      "Ġsect": 3012,
      "rein": 3013,
      "oeden": 3014,
      "Ġveren": 3015,
      "Ġvoordat": 3016,
      "gever": 3017,
      "ogelijke": 3018,
      "rus": 3019,
      "Ġfeest": 3020,
      "ĠBest": 3021,
      "ĠMa": 3022,
      "ĠNaast": 3023,
      "apen": 3024,
      "Ġonderz": 3025,
      "Ġzichzelf": 3026,
      "Ġ2010": 3027,
      "Ġ2015": 3028,
      "Ġgenoemd": 3029,
      "Ġthema": 3030,
      "Ġgehad": 3031,
      "Ġactief": 3032,
      "Ġproberen": 3033,
      "woordig": 3034,
      "gelegd": 3035,
      "Ġsterren": 3036,
      "Ġopleiding": 3037,
      "ĠVolgens": 3038,
      "ĠEuropa": 3039,
      "Ġetc": 3040,
      "Ġmoderne": 3041,
      "tember": 3042,
      "Ġzonnepan": 3043,
      "15": 3044,
      "AL": 3045,
      "SC": 3046,
      "Wanneer": 3047,
      "kk": 3048,
      "kshop": 3049,
      "ware": 3050,
      "zus": 3051,
      "Ġvar": 3052,
      "aai": 3053,
      "stad": 3054,
      "Ġwind": 3055,
      "Ġwacht": 3056,
      "Ġgoo": 3057,
      "Ġenerg": 3058,
      "itief": 3059,
      "regel": 3060,
      "alige": 3061,
      "Ġaant": 3062,
      "Ġstof": 3063,
      "schoenen": 3064,
      "enties": 3065,
      "ĠGa": 3066,
      "ĠCO": 3067,
      "Ġwaarop": 3068,
      "ĠLaat": 3069,
      "ĠPr": 3070,
      "ĠKamer": 3071,
      "Ġgroen": 3072,
      "Ġtoep": 3073,
      "able": 3074,
      "Ġgevallen": 3075,
      "Ġgenomen": 3076,
      "ovendien": 3077,
      "Ġvloer": 3078,
      "âĢĿ.": 3079,
      "product": 3080,
      "Ġderde": 3081,
      "coin": 3082,
      "Ġabs": 3083,
      "Ġbreed": 3084,
      "Ġveilig": 3085,
      "Ġbijzondere": 3086,
      "Ġprofessionele": 3087,
      "Ġseizoen": 3088,
      "ĠFrankrijk": 3089,
      "arketing": 3090,
      "Ġseptember": 3091,
      "code": 3092,
      "ian": 3093,
      "ider": 3094,
      "loos": 3095,
      "sm": 3096,
      "sn": 3097,
      "war": 3098,
      "Ġ|": 3099,
      "Ġdood": 3100,
      "anken": 3101,
      "Ġvaste": 3102,
      "Ġbor": 3103,
      "Ġbos": 3104,
      "Ġgehouden": 3105,
      "Ġgeplaatst": 3106,
      "Ġbeide": 3107,
      "ĠDel": 3108,
      "Ġonver": 3109,
      "urr": 3110,
      "Ġfr": 3111,
      "Ġfys": 3112,
      "ĠMijn": 3113,
      "ĠSam": 3114,
      "uldig": 3115,
      "icro": 3116,
      "spl": 3117,
      "Ġschoon": 3118,
      "Ġdaarmee": 3119,
      "Ġklin": 3120,
      "Ġtoege": 3121,
      "ecte": 3122,
      "Ġbegint": 3123,
      "Ġkwamen": 3124,
      "Ġhouten": 3125,
      "Ġevenem": 3126,
      "Ġvertellen": 3127,
      "Ġvertelt": 3128,
      "Ġruime": 3129,
      "vloed": 3130,
      "Ġbesluit": 3131,
      "Ġglas": 3132,
      "Ġcentrum": 3133,
      "Ġbehandeling": 3134,
      "ĠfinanciÃ«le": 3135,
      "beheer": 3136,
      "Ġuiteraard": 3137,
      "ĠQu": 3138,
      "Ġleeftijd": 3139,
      "14": 3140,
      "16": 3141,
      "35": 3142,
      "IT": 3143,
      "bren": 3144,
      "da": 3145,
      "euren": 3146,
      "ioen": 3147,
      "weer": 3148,
      "Ġvocht": 3149,
      "eloos": 3150,
      "Ġmel": 3151,
      "Ġgerecht": 3152,
      "Ġtrouw": 3153,
      "Ġtips": 3154,
      "isen": 3155,
      "isschien": 3156,
      "Ġkamp": 3157,
      "itcoin": 3158,
      "leiding": 3159,
      "Ġonbe": 3160,
      "Ġsturen": 3161,
      "Ġcook": 3162,
      "ĠHaar": 3163,
      "Ġdiep": 3164,
      "ĠAf": 3165,
      "ienden": 3166,
      "ĠNatuur": 3167,
      "ĠNeem": 3168,
      "Ġwaaronder": 3169,
      "spre": 3170,
      "Ġschrij": 3171,
      "Ġontb": 3172,
      "Ġbetaald": 3173,
      "ĠInd": 3174,
      "Ġgroene": 3175,
      "sland": 3176,
      "acil": 3177,
      "Ġdient": 3178,
      "ages": 3179,
      "Ġnatuurlijke": 3180,
      "Ġinstru": 3181,
      "ureau": 3182,
      "Ġspecif": 3183,
      "Ġbepaald": 3184,
      "ĠVanaf": 3185,
      "plaatsen": 3186,
      "Ġbestaande": 3187,
      "sproken": 3188,
      "Ġpubliek": 3189,
      "okkade": 3190,
      "Ġhalf": 3191,
      "angerak": 3192,
      "ACTI": 3193,
      "Ġweekend": 3194,
      "200": 3195,
      "halen": 3196,
      "la": 3197,
      "ners": 3198,
      "punten": 3199,
      "roe": 3200,
      "uigen": 3201,
      "zw": 3202,
      "zak": 3203,
      "ĠÃ©n": 3204,
      "iness": 3205,
      "Ġokt": 3206,
      "Ġhy": 3207,
      "Ġheren": 3208,
      "Ġeconom": 3209,
      "Ġtabl": 3210,
      "Ġvanwege": 3211,
      "Ġsat": 3212,
      "Ġtem": 3213,
      "Ġtest": 3214,
      "Ġjezelf": 3215,
      "urf": 3216,
      "Ġcamp": 3217,
      "oth": 3218,
      "oto": 3219,
      "teken": 3220,
      "rast": 3221,
      "raken": 3222,
      "enter": 3223,
      "Ġfact": 3224,
      "rijd": 3225,
      "ĠSte": 3226,
      "stemming": 3227,
      "Ġoveral": 3228,
      "spron": 3229,
      "Ġmod": 3230,
      "astic": 3231,
      "Ġbetrouw": 3232,
      "Ġbestuur": 3233,
      "ivid": 3234,
      "Ġarbe": 3235,
      "ĠJezus": 3236,
      "Ġvroeg": 3237,
      "Ġbeweg": 3238,
      "Ġkennen": 3239,
      "aliseerd": 3240,
      "Ġmedia": 3241,
      "Ġgevolg": 3242,
      "Ġoffic": 3243,
      "Ġgereg": 3244,
      "Ġgrotere": 3245,
      "ĠiP": 3246,
      "Ġschilder": 3247,
      "Ġamb": 3248,
      "Ġinspir": 3249,
      "Ġprima": 3250,
      "Ġabonnement": 3251,
      "Waar": 3252,
      "echt": 3253,
      "part": 3254,
      "pos": 3255,
      "uim": 3256,
      "waard": 3257,
      "Ġdik": 3258,
      "Ġvoeren": 3259,
      "Ġout": 3260,
      "Ġhonden": 3261,
      "Ġdefin": 3262,
      "orol": 3263,
      "Ġmogelijke": 3264,
      "Ġband": 3265,
      "Ġback": 3266,
      "Ġgast": 3267,
      "Ġtoon": 3268,
      "ition": 3269,
      "Ġinderdaad": 3270,
      "Ġpunten": 3271,
      "Ġpakket": 3272,
      "Ġser": 3273,
      "Ġseks": 3274,
      "ille": 3275,
      "Ġcirc": 3276,
      "ĠHe": 3277,
      "Ġuitvoer": 3278,
      "stem": 3279,
      "ĠNet": 3280,
      "ĠTer": 3281,
      "appen": 3282,
      "Ġgebracht": 3283,
      "vester": 3284,
      "Ġgebruikers": 3285,
      "Ġ2014": 3286,
      "blad": 3287,
      "Ġwerkzaam": 3288,
      "Ġbeschikt": 3289,
      "ffende": 3290,
      "Ġverkl": 3291,
      "illa": 3292,
      "Ġbevat": 3293,
      "Ġgekozen": 3294,
      "ĠVerder": 3295,
      "middel": 3296,
      "raagd": 3297,
      "straat": 3298,
      "Ġfilmp": 3299,
      "Ġvordering": 3300,
      "Ġbouwen": 3301,
      "Ġelektrische": 3302,
      "Ġregelmatig": 3303,
      "Ġontvangt": 3304,
      "Ġklimaat": 3305,
      "Ġbegrijpen": 3306,
      "Ġautomat": 3307,
      "Ġwedstrij": 3308,
      "EG": 3309,
      "Over": 3310,
      "ai": 3311,
      "eiden": 3312,
      "izen": 3313,
      "ling": 3314,
      "ule": 3315,
      "zame": 3316,
      "ĠX": 3317,
      "Ġderg": 3318,
      "Ġvit": 3319,
      "elaars": 3320,
      "Ġhoren": 3321,
      "Ġmass": 3322,
      "Ġwens": 3323,
      "Ġbron": 3324,
      "Ġzes": 3325,
      "Ġzak": 3326,
      "Ġinn": 3327,
      "des": 3328,
      "reef": 3329,
      "Ġtev": 3330,
      "Ġveroor": 3331,
      "Ġlijn": 3332,
      "iland": 3333,
      "Ġdata": 3334,
      "cties": 3335,
      "ĠAnt": 3336,
      "ĠSE": 3337,
      "stemen": 3338,
      "oost": 3339,
      "ĠTra": 3340,
      "spel": 3341,
      "spraak": 3342,
      "ĠLa": 3343,
      "Ġbetrokken": 3344,
      "Ġbestand": 3345,
      "Ġwijz": 3346,
      "Ġgezet": 3347,
      "Ġmannen": 3348,
      "Ġprin": 3349,
      "Ġsamenwerking": 3350,
      "Ġhelft": 3351,
      "Ġthis": 3352,
      "Ġkomende": 3353,
      "Ġzwart": 3354,
      "Ġzwarte": 3355,
      "Ġverhalen": 3356,
      "Ġgeschreven": 3357,
      "issie": 3358,
      "Ġverzorg": 3359,
      "ulling": 3360,
      "Ġouders": 3361,
      "systeem": 3362,
      "offen": 3363,
      "undige": 3364,
      "waarden": 3365,
      "Ġbeperkt": 3366,
      "Ġspeelt": 3367,
      "aardigheden": 3368,
      "schappelijke": 3369,
      "ĠBelgiÃ«": 3370,
      "Ġpopulair": 3371,
      "streeks": 3372,
      "Ġvlees": 3373,
      "Ġstudenten": 3374,
      "Ġsmartphone": 3375,
      "ACTION": 3376,
      "99": 3377,
      "IP": 3378,
      "LE": 3379,
      "Na": 3380,
      "WIN": 3381,
      "ced": 3382,
      "niet": 3383,
      "park": 3384,
      "ures": 3385,
      "zel": 3386,
      "zing": 3387,
      "âĨ": 3388,
      "ĠÂ": 3389,
      "Ġdos": 3390,
      "ande": 3391,
      "Ġvallen": 3392,
      "Ġhanden": 3393,
      "Ġmomenteel": 3394,
      "Ġwachten": 3395,
      "Ġeet": 3396,
      "Ġzoekt": 3397,
      "iti": 3398,
      "ones": 3399,
      "repen": 3400,
      "oeder": 3401,
      "Ġvoorbeeld": 3402,
      "Ġlijst": 3403,
      "ĠHel": 3404,
      "ĠSm": 3405,
      "Ġreag": 3406,
      "Ġleg": 3407,
      "Ġ26": 3408,
      "ĠGal": 3409,
      "angst": 3410,
      "ĠColle": 3411,
      "Ġafhankelijk": 3412,
      "Ġontsp": 3413,
      "âĢĻ,": 3414,
      "Ġvolgt": 3415,
      "Ġdaarvoor": 3416,
      "Ġterm": 3417,
      "Ġtoev": 3418,
      "inkel": 3419,
      "Ġgeluid": 3420,
      "Ġthat": 3421,
      "ownl": 3422,
      "Ġherken": 3423,
      "Ġgeschiedenis": 3424,
      "Ġspeciale": 3425,
      "Ġzonn": 3426,
      "Ġaanbie": 3427,
      "Ġprem": 3428,
      "Ġsym": 3429,
      "ologische": 3430,
      "Ġsmaak": 3431,
      "Ġbericht": 3432,
      "Ġunivers": 3433,
      "Ġprachtig": 3434,
      "zijde": 3435,
      "Ġkorting": 3436,
      "Ġresultaten": 3437,
      "Ġnormaal": 3438,
      "Ġdecember": 3439,
      "Ġkarakt": 3440,
      "Ġafbeelding": 3441,
      "Ġaangeboden": 3442,
      "jarige": 3443,
      "ĠSimon": 3444,
      "Ġzonnepanelen": 3445,
      "Ġoktober": 3446,
      "75": 3447,
      "80": 3448,
      "aand": 3449,
      "bar": 3450,
      "back": 3451,
      "dre": 3452,
      "keer": 3453,
      "put": 3454,
      "poort": 3455,
      "tjes": 3456,
      "ude": 3457,
      "zijd": 3458,
      "Ã¡": 3459,
      "Ġ!": 3460,
      "Ġaarde": 3461,
      "Ġdoc": 3462,
      "Ġdigit": 3463,
      "ane": 3464,
      "iner": 3465,
      "Ġmerken": 3466,
      "Ġtw": 3467,
      "Ġkap": 3468,
      "Ġname": 3469,
      "Ġnoemen": 3470,
      "Ġindruk": 3471,
      "Ġpakken": 3472,
      "arten": 3473,
      "roken": 3474,
      "Ġmeth": 3475,
      "ike": 3476,
      "ous": 3477,
      "oude": 3478,
      "ebru": 3479,
      "ebook": 3480,
      "Ġfab": 3481,
      "Ġuitger": 3482,
      "ĠBovendien": 3483,
      "Ġworkshop": 3484,
      "ĠMed": 3485,
      "ĠSl": 3486,
      "heen": 3487,
      "erend": 3488,
      "anders": 3489,
      "Ġraad": 3490,
      "ĠâĢĻ": 3491,
      "Ġmacht": 3492,
      "Ġplat": 3493,
      "ortiment": 3494,
      "Ġbloemen": 3495,
      "eds": 3496,
      "Ġterras": 3497,
      "Ġbedrag": 3498,
      "dustr": 3499,
      "Ġ2016": 3500,
      "urende": 3501,
      "inks": 3502,
      "grond": 3503,
      "randen": 3504,
      "Ġproductie": 3505,
      "oegd": 3506,
      "eester": 3507,
      "Ġgekregen": 3508,
      "Ġideale": 3509,
      "Ġgericht": 3510,
      "Ġrelatie": 3511,
      "Ġgesteld": 3512,
      "Ġunieke": 3513,
      "Ġmaatregelen": 3514,
      "Ġveranderen": 3515,
      "ĠcreÃ«": 3516,
      "Ġfunction": 3517,
      "reekt": 3518,
      "Ġitem": 3519,
      "Ġbleek": 3520,
      "Ġindivid": 3521,
      "Ġdiscuss": 3522,
      "Ġenthou": 3523,
      "Ġabsol": 3524,
      "Nu": 3525,
      "baan": 3526,
      "cel": 3527,
      "ld": 3528,
      "prijs": 3529,
      "rond": 3530,
      "uig": 3531,
      "uper": 3532,
      "vaart": 3533,
      "Ġwww": 3534,
      "Ġby": 3535,
      "Ġtal": 3536,
      "Ġtrekken": 3537,
      "aarten": 3538,
      "Ġgepro": 3539,
      "Ġpan": 3540,
      "Ġverplicht": 3541,
      "gende": 3542,
      "vering": 3543,
      "ampen": 3544,
      "Ġcm": 3545,
      "Ġcan": 3546,
      "tegen": 3547,
      "schreven": 3548,
      "rukt": 3549,
      "Ġerop": 3550,
      "Ġuitzicht": 3551,
      "ĠBitcoin": 3552,
      "ĠSh": 3553,
      "Ġrechter": 3554,
      "Ġleef": 3555,
      "ics": 3556,
      "Ġwaard": 3557,
      "Ġscher": 3558,
      "ĠZijn": 3559,
      "terd": 3560,
      "Ġbetaal": 3561,
      "Ġbetere": 3562,
      "Ġklachten": 3563,
      "Ġhieronder": 3564,
      "Ġbedien": 3565,
      "aby": 3566,
      "inderen": 3567,
      "Ġdiam": 3568,
      "Ġrug": 3569,
      "Ġgedachten": 3570,
      "Ġgeniet": 3571,
      "udget": 3572,
      "avor": 3573,
      "Ġbewon": 3574,
      "gemaakt": 3575,
      "izz": 3576,
      "que": 3577,
      "utenberg": 3578,
      "ĠSport": 3579,
      "Ġberoep": 3580,
      "Ġliefst": 3581,
      "Ġveiligheid": 3582,
      "ĠEuropese": 3583,
      "Ġgevolgen": 3584,
      "Ġavond": 3585,
      "Ġelektriciteit": 3586,
      "ĠBelgische": 3587,
      "Ġgelukkig": 3588,
      "Ġupdat": 3589,
      "Ġgezondheid": 3590,
      "Ġaanbiedingen": 3591,
      "Ġsneller": 3592,
      "Ġsituatie": 3593,
      "ebruari": 3594,
      "Hier": 3595,
      "danks": 3596,
      "hol": 3597,
      "heb": 3598,
      "ole": 3599,
      "ueel": 3600,
      "zaak": 3601,
      "Ġx": 3602,
      "Ġdragen": 3603,
      "Ġob": 3604,
      "Ġhonder": 3605,
      "Ġmak": 3606,
      "Ġare": 3607,
      "Ġene": 3608,
      "Ġing": 3609,
      "Ġgeest": 3610,
      "reet": 3611,
      "rest": 3612,
      "reek": 3613,
      "Ġtext": 3614,
      "Ġvooraf": 3615,
      "olis": 3616,
      "ouch": 3617,
      "âĢ¢": 3618,
      "esse": 3619,
      "Ġword": 3620,
      "ĠSc": 3621,
      "Ġreactie": 3622,
      "Ġovertu": 3623,
      "ĠGeen": 3624,
      "ĠGutenberg": 3625,
      "Ġprovincie": 3626,
      "ĠLake": 3627,
      "Ġspreken": 3628,
      "aagd": 3629,
      "achtoff": 3630,
      "Ġplastic": 3631,
      "ouwen": 3632,
      "Ġgewen": 3633,
      "acties": 3634,
      "Ġverschijn": 3635,
      "Ġslot": 3636,
      "Ġvrienden": 3637,
      "Ġgeleverd": 3638,
      "Ġ60": 3639,
      "ĠChrist": 3640,
      "Ġnetwerk": 3641,
      "Ġspeciaal": 3642,
      "Ġimmers": 3643,
      "persoon": 3644,
      "woners": 3645,
      "Ġstappen": 3646,
      "Onze": 3647,
      "Ġappl": 3648,
      "Ġlinks": 3649,
      "Ġjonge": 3650,
      "Ġallerlei": 3651,
      "Ġeventueel": 3652,
      "impel": 3653,
      "ĠJohn": 3654,
      "Ġcookies": 3655,
      "âĨĳ": 3656,
      "DES": 3657,
      "MA": 3658,
      "MS": 3659,
      "dagen": 3660,
      "gers": 3661,
      "ja": 3662,
      "kelijke": 3663,
      "past": 3664,
      "pomp": 3665,
      "rand": 3666,
      "va": 3667,
      "enn": 3668,
      "Ġdetail": 3669,
      "elle": 3670,
      "Ġhang": 3671,
      "Ġhigh": 3672,
      "Ġmat": 3673,
      "Ġmateriaal": 3674,
      "Ġbak": 3675,
      "Ġtent": 3676,
      "Ġzag": 3677,
      "ities": 3678,
      "Ġinc": 3679,
      "Ġingericht": 3680,
      "Ġgef": 3681,
      "Ġpe": 3682,
      "dem": 3683,
      "Ġsk": 3684,
      "ĠDuur": 3685,
      "Ġletter": 3686,
      "Ġaltern": 3687,
      "genaam": 3688,
      "Ġstond": 3689,
      "ammer": 3690,
      "Ġcurs": 3691,
      "asse": 3692,
      "aseerd": 3693,
      "Ġfebruari": 3694,
      "esl": 3695,
      "ĠMal": 3696,
      "Ġoverigens": 3697,
      "ĠPap": 3698,
      "Ġondersche": 3699,
      "Ġgebeuren": 3700,
      "oens": 3701,
      "Ġontbij": 3702,
      "Ġontstaan": 3703,
      "Ġbetaling": 3704,
      "acy": 3705,
      "acebook": 3706,
      "Ġhiervoor": 3707,
      "Ġbedoel": 3708,
      "hout": 3709,
      "ugd": 3710,
      "ĠEnergie": 3711,
      "estiv": 3712,
      "beelden": 3713,
      "Ġvroe": 3714,
      "Ġbezoeken": 3715,
      "Ġverbonden": 3716,
      "ront": 3717,
      "Ġvrijheid": 3718,
      "Ġluxe": 3719,
      "ommod": 3720,
      "Ġstraat": 3721,
      "vlak": 3722,
      "Ġvraagt": 3723,
      "gelegen": 3724,
      "waarde": 3725,
      "Ġwitte": 3726,
      "Ġluchthaven": 3727,
      "ĠZwits": 3728,
      "Ġachterg": 3729,
      "standigheden": 3730,
      "Ġuitgebreid": 3731,
      "Ġuitgebreide": 3732,
      "Ġmobiele": 3733,
      "beleid": 3734,
      "Ġassortiment": 3735,
      "Ġfietsen": 3736,
      "Ġsprake": 3737,
      "Ġstudie": 3738,
      "Ġsector": 3739,
      "Ġautomatisch": 3740,
      "Ġbewoners": 3741,
      "??": 3742,
      "ID": 3743,
      "boven": 3744,
      "gels": 3745,
      "iste": 3746,
      "kn": 3747,
      "naar": 3748,
      "nog": 3749,
      "oi": 3750,
      "oun": 3751,
      "rel": 3752,
      "sw": 3753,
      "uf": 3754,
      "zaken": 3755,
      "Ġvari": 3756,
      "ette": 3757,
      "Ġoef": 3758,
      "Ġhond": 3759,
      "Ġdeed": 3760,
      "Ġmar": 3761,
      "Ġwijn": 3762,
      "Ġgingen": 3763,
      "Ġgang": 3764,
      "Ġess": 3765,
      "Ġaute": 3766,
      "Ġzaak": 3767,
      "Ġzult": 3768,
      "Ġenz": 3769,
      "Ġinclusief": 3770,
      "Ġinvester": 3771,
      "ingt": 3772,
      "leet": 3773,
      "Ġgehe": 3774,
      "Ġgesl": 3775,
      "Ġpot": 3776,
      "Ġso": 3777,
      "rem": 3778,
      "Ġtevens": 3779,
      "arn": 3780,
      "Ġvoordeel": 3781,
      "ĠDen": 3782,
      "verl": 3783,
      "ikte": 3784,
      "ilj": 3785,
      "Ġstil": 3786,
      "olie": 3787,
      "Ġcijf": 3788,
      "rab": 3789,
      "eeld": 3790,
      "elect": 3791,
      "ĠMe": 3792,
      "ĠMen": 3793,
      "ĠMisschien": 3794,
      "ĠWie": 3795,
      "immel": 3796,
      "ĠGel": 3797,
      "ĠLangerak": 3798,
      "Ġzeg": 3799,
      "ĠPas": 3800,
      "ĠPark": 3801,
      "Ġonderdelen": 3802,
      "ĠZuid": 3803,
      "ĠKle": 3804,
      "Ġgoedkop": 3805,
      "Ġtoer": 3806,
      "irtu": 3807,
      "week": 3808,
      "mach": 3809,
      "Ġwerknemers": 3810,
      "ĠUit": 3811,
      "Ġkleding": 3812,
      "ĠNederlands": 3813,
      "amera": 3814,
      "Ġvlak": 3815,
      "Ġsnelle": 3816,
      "Ġdenkt": 3817,
      "Ġ2006": 3818,
      "Ġdeelnemers": 3819,
      "Ġaanbod": 3820,
      "raagt": 3821,
      "Ġrelig": 3822,
      "Ġmaandag": 3823,
      "axy": 3824,
      "oefte": 3825,
      "Ġcorre": 3826,
      "Ġgebeurt": 3827,
      "Ġkruiden": 3828,
      "Ġapparaat": 3829,
      "Ġvliegt": 3830,
      "Ġbusiness": 3831,
      "Ġpraktijk": 3832,
      "Ġrisico": 3833,
      "ĠGalaxy": 3834,
      "45": 3835,
      "El": 3836,
      "IJ": 3837,
      "OP": 3838,
      "UR": 3839,
      "aw": 3840,
      "lop": 3841,
      "mogelijk": 3842,
      "zam": 3843,
      "Ġangst": 3844,
      "erl": 3845,
      "Ġdaad": 3846,
      "Ġdoelen": 3847,
      "ankt": 3848,
      "elicit": 3849,
      "orten": 3850,
      "standen": 3851,
      "iezen": 3852,
      "Ġtype": 3853,
      "issen": 3854,
      "Ġkoel": 3855,
      "itte": 3856,
      "Ġindustr": 3857,
      "onie": 3858,
      "degem": 3859,
      "Ġopmer": 3860,
      "alm": 3861,
      "Ġbekeken": 3862,
      "ara": 3863,
      "arch": 3864,
      "Ġvervangen": 3865,
      "omer": 3866,
      "kens": 3867,
      "Ġaang": 3868,
      "Ġaanm": 3869,
      "iete": 3870,
      "ott": 3871,
      "ctor": 3872,
      "Ġfru": 3873,
      "Ġfavor": 3874,
      "ĠBre": 3875,
      "ĠBekijk": 3876,
      "ĠApp": 3877,
      "Ġrespect": 3878,
      "ĠTwee": 3879,
      "ĠTijdens": 3880,
      "ĠGer": 3881,
      "apt": 3882,
      "ĠRot": 3883,
      "Ġtotale": 3884,
      "ieuwd": 3885,
      "Ġplannen": 3886,
      "plan": 3887,
      "Ġtoeg": 3888,
      "Ġeerlijk": 3889,
      "Ġbegonnen": 3890,
      "blijven": 3891,
      "Ġslachtoff": 3892,
      "Ġdraag": 3893,
      "assing": 3894,
      "komsten": 3895,
      "Ġapparte": 3896,
      "Ġbevindt": 3897,
      "Ġouder": 3898,
      "Ġbereikt": 3899,
      "Ġoptie": 3900,
      "Ġaccommod": 3901,
      "gave": 3902,
      "Ġvoorzieningen": 3903,
      "Ġvorige": 3904,
      "Ġanal": 3905,
      "Ġoffer": 3906,
      "ĠideeÃ«n": 3907,
      "Ġbetreffende": 3908,
      "Ġperfecte": 3909,
      "ĠpatiÃ«nten": 3910,
      "Ġsubsid": 3911,
      "Ġjongeren": 3912,
      "zitter": 3913,
      "Ġpresent": 3914,
      "Ġdochter": 3915,
      "Ġcommunicatie": 3916,
      "Ġontmoet": 3917,
      "Ġspecialist": 3918,
      "Ġontbijt": 3919,
      "11": 3920,
      "Ge": 3921,
      "Hotels": 3922,
      "fer": 3923,
      "hel": 3924,
      "hoven": 3925,
      "kast": 3926,
      "lijst": 3927,
      "maar": 3928,
      "oeten": 3929,
      "vast": 3930,
      "Ġval": 3931,
      "etjes": 3932,
      "Ġhof": 3933,
      "Ġhuizen": 3934,
      "Ġhistor": 3935,
      "Ġmaak": 3936,
      "Ġmater": 3937,
      "Ġwist": 3938,
      "Ġgas": 3939,
      "ieur": 3940,
      "Ġzieken": 3941,
      "Ġkonden": 3942,
      "iten": 3943,
      "Ġinvloed": 3944,
      "ley": 3945,
      "Ġpost": 3946,
      "Ġsign": 3947,
      "Ġsoorten": 3948,
      "denken": 3949,
      "Ġbeelden": 3950,
      "Ġvoorbij": 3951,
      "Ġvoorbere": 3952,
      "ikken": 3953,
      "test": 3954,
      "Ġergens": 3955,
      "Ġfant": 3956,
      "ĠMuseum": 3957,
      "Ġreger": 3958,
      "Ġrecept": 3959,
      "Ġreview": 3960,
      "Ġleggen": 3961,
      "uwe": 3962,
      "Ġkunsten": 3963,
      "ĠIeder": 3964,
      "Ġ23": 3965,
      "ĠToch": 3966,
      "ĠCat": 3967,
      "ĠComm": 3968,
      "sper": 3969,
      "ĠRomein": 3970,
      "odige": 3971,
      "Ġgrens": 3972,
      "Ġbetaalt": 3973,
      "ĠIndi": 3974,
      "houdt": 3975,
      "iÃ«r": 3976,
      "gevoegd": 3977,
      "Ġbegon": 3978,
      "Ġhelaas": 3979,
      "ĠDaarna": 3980,
      "Ġvertrouwen": 3981,
      "eltjes": 3982,
      "odem": 3983,
      "Ġgelezen": 3984,
      "Ġraden": 3985,
      "Ġdienen": 3986,
      "appar": 3987,
      "Ġprest": 3988,
      "Ġvolledige": 3989,
      "ĠHierdoor": 3990,
      "Ġprojecten": 3991,
      "Ġaccount": 3992,
      "Ġpolit": 3993,
      "Ġzwembroek": 3994,
      "usea": 3995,
      "TIP": 3996,
      "Ġkantoor": 3997,
      "Ġfunctie": 3998,
      "Ġpositieve": 3999,
      "Ġsociaal": 4000,
      "Ġontdekken": 4001,
      "Ġconcurr": 4002,
      "sluiting": 4003,
      "Ġverbeteren": 4004,
      "ĠSPIN": 4005,
      "Ġtitel": 4006,
      "aciliteiten": 4007,
      "Ġtemperatuur": 4008,
      "Ġdergelijke": 4009,
      "Ġtevreden": 4010,
      "ĠMaldegem": 4011,
      "ĠRotterd": 4012,
      "//": 4013,
      "25": 4014,
      "Mijn": 4015,
      "ROR": 4016,
      "Wel": 4017,
      "cip": 4018,
      "eden": 4019,
      "gl": 4020,
      "kte": 4021,
      "kort": 4022,
      "kracht": 4023,
      "pagina": 4024,
      "tr": 4025,
      "ting": 4026,
      "uff": 4027,
      "Ġ...": 4028,
      "Ġvij": 4029,
      "Ġvac": 4030,
      "aait": 4031,
      "stra": 4032,
      "Ġwinter": 4033,
      "Ġbudget": 4034,
      "Ġkent": 4035,
      "Ġnation": 4036,
      "Ġgegaan": 4037,
      "reerd": 4038,
      "Ġbevol": 4039,
      "Ġvere": 4040,
      "Ġlag": 4041,
      "Ġonge": 4042,
      "verg": 4043,
      "Ġaanra": 4044,
      "Ġstat": 4045,
      "elijkse": 4046,
      "hem": 4047,
      "stede": 4048,
      "Ġreeds": 4049,
      "Ġovereenkomst": 4050,
      "uleren": 4051,
      "ĠGu": 4052,
      "Ġgebaseerd": 4053,
      "Ġmodel": 4054,
      "ĠKe": 4055,
      "ioneel": 4056,
      "ĠFacebook": 4057,
      "Ġ2020": 4058,
      "Ġhierbij": 4059,
      "ales": 4060,
      "Ġ35": 4061,
      "Ġgezonde": 4062,
      "blokkade": 4063,
      "Ġwerking": 4064,
      "Ġbehulp": 4065,
      "neming": 4066,
      "Ġinteresse": 4067,
      "rekking": 4068,
      "Ġverkopen": 4069,
      "udi": 4070,
      "avi": 4071,
      "ssel": 4072,
      "centage": 4073,
      "Ġmoeite": 4074,
      "Ġsleut": 4075,
      "Ġdirecte": 4076,
      "Ġverzorgen": 4077,
      "Ġtradit": 4078,
      "Ġbovendien": 4079,
      "Ġbeschikken": 4080,
      "Ġkiest": 4081,
      "ERROR": 4082,
      "oftware": 4083,
      "Ġoorspron": 4084,
      "Ġvergelijken": 4085,
      "ĠAlleen": 4086,
      "Ġdouche": 4087,
      "Ġvoelt": 4088,
      "Ġondersteuning": 4089,
      "Ġdemoc": 4090,
      "Ġgemeenten": 4091,
      "Ġgooch": 4092,
      "Ġkarakter": 4093,
      "Ġenthousi": 4094,
      "Ġabsoluut": 4095,
      "oensdag": 4096,
      "ĠRotterdam": 4097,
      "Vl": 4098,
      "Wh": 4099,
      "kele": 4100,
      "maat": 4101,
      "nst": 4102,
      "richting": 4103,
      "tussen": 4104,
      "woorden": 4105,
      "erland": 4106,
      "Ġdak": 4107,
      "Ġvest": 4108,
      "Ġvader": 4109,
      "Ġvoelen": 4110,
      "inese": 4111,
      "ijz": 4112,
      "Ġhoek": 4113,
      "Ġmaag": 4114,
      "Ġmult": 4115,
      "Ġeenheid": 4116,
      "ona": 4117,
      "leggen": 4118,
      "Ġopv": 4119,
      "arme": 4120,
      "Ġverf": 4121,
      "rok": 4122,
      "Ġvoorn": 4123,
      "ĠDes": 4124,
      "Ġongel": 4125,
      "Ġaldus": 4126,
      "gemen": 4127,
      "Ġstick": 4128,
      "outen": 4129,
      "ots": 4130,
      "techn": 4131,
      "rage": 4132,
      "ogel": 4133,
      "entiÃ«le": 4134,
      "ĠMan": 4135,
      "akker": 4136,
      "ĠVakantie": 4137,
      "ĠNeder": 4138,
      "ĠPer": 4139,
      "Ġmocht": 4140,
      "Ġsche": 4141,
      "Ġschreef": 4142,
      "istratie": 4143,
      "Ġricht": 4144,
      "Ġgevraagd": 4145,
      "irt": 4146,
      "houds": 4147,
      "Ġcompl": 4148,
      "ĠUtre": 4149,
      "Ġtegenwoordig": 4150,
      "Ġrode": 4151,
      "gebouw": 4152,
      "Ġkwart": 4153,
      "Ġbehoefte": 4154,
      "Ġverkocht": 4155,
      "Ġvertrouw": 4156,
      "anciers": 4157,
      "Ġgehele": 4158,
      "Ġvlucht": 4159,
      "Ġverhoog": 4160,
      "own": 4161,
      "obal": 4162,
      "programma": 4163,
      "Ġpartners": 4164,
      "Ġcompleet": 4165,
      "Ġgesprekken": 4166,
      "Ġvermeld": 4167,
      "Ġrelatief": 4168,
      "Ġeffic": 4169,
      "ĠArn": 4170,
      "ĠGods": 4171,
      "Ġsteden": 4172,
      "pleeg": 4173,
      "Ġtechnische": 4174,
      "Ġoplossingen": 4175,
      "Ã¨re": 4176,
      "Ġvoedsel": 4177,
      "ĠDuitsland": 4178,
      "Ġuitvoeren": 4179,
      "Ġhorec": 4180,
      "verzekering": 4181,
      "ografie": 4182,
      "ĠSEO": 4183,
      "Ġachtergrond": 4184,
      "Ġtoegankelijk": 4185,
      "gemene": 4186,
      "ĠUtrecht": 4187,
      "Hel": 4188,
      "Tijdens": 4189,
      "fgoed": 4190,
      "gra": 4191,
      "haald": 4192,
      "ield": 4193,
      "ielen": 4194,
      "kan": 4195,
      "oeld": 4196,
      "ser": 4197,
      "som": 4198,
      "vi": 4199,
      "yr": 4200,
      "zingen": 4201,
      "Ġhuw": 4202,
      "Ġhak": 4203,
      "ork": 4204,
      "stij": 4205,
      "Ġwiss": 4206,
      "Ġeiland": 4207,
      "Ġtom": 4208,
      "Ġtru": 4209,
      "Ġtijden": 4210,
      "Ġziek": 4211,
      "ish": 4212,
      "Ġke": 4213,
      "Ġkerst": 4214,
      "Ġnummer": 4215,
      "leving": 4216,
      "Ġgede": 4217,
      "oede": 4218,
      "alle": 4219,
      "alist": 4220,
      "Ġverp": 4221,
      "Ġla": 4222,
      "gezet": 4223,
      "genoot": 4224,
      "Ġstrijd": 4225,
      "ouden": 4226,
      "Ġflex": 4227,
      "ĠBerg": 4228,
      "ĠSamen": 4229,
      "ĠWijk": 4230,
      "ĠWerk": 4231,
      "Ġ28": 4232,
      "ĠToen": 4233,
      "ĠOost": 4234,
      "ĠCar": 4235,
      "ĠCont": 4236,
      "uurde": 4237,
      "ĠLand": 4238,
      "Ġzeven": 4239,
      "Ġspir": 4240,
      "ĠZelf": 4241,
      "veen": 4242,
      "werker": 4243,
      "Ġblauw": 4244,
      "onderdag": 4245,
      "iÃ«ren": 4246,
      "ankzij": 4247,
      "Ġbegrip": 4248,
      "ĠUw": 4249,
      "formatie": 4250,
      "groe": 4251,
      "rijke": 4252,
      "Ġarch": 4253,
      "Ġverbruik": 4254,
      "Ġverwachten": 4255,
      "Ġstrip": 4256,
      "Ġstrateg": 4257,
      "brief": 4258,
      "Ġregels": 4259,
      "Ġimp": 4260,
      "Ġstev": 4261,
      "Ġadvis": 4262,
      "Ġpositief": 4263,
      "Ġmodern": 4264,
      "autom": 4265,
      "Ġfijne": 4266,
      "Ġenorme": 4267,
      "Ġgemiddelde": 4268,
      "ĠNatuurlijk": 4269,
      "://": 4270,
      "RA": 4271,
      "VD": 4272,
      "bruik": 4273,
      "ht": 4274,
      "iam": 4275,
      "kun": 4276,
      "kaart": 4277,
      "kooi": 4278,
      "rim": 4279,
      "sbe": 4280,
      "Ġann": 4281,
      "eni": 4282,
      "Ġdames": 4283,
      "Ġmarketing": 4284,
      "stellingen": 4285,
      "Ġwoensdag": 4286,
      "iemand": 4287,
      "Ġtwijf": 4288,
      "Ġkabel": 4289,
      "Ġsimpel": 4290,
      "Ġlas": 4291,
      "gesch": 4292,
      "Ġdatings": 4293,
      "Ġcade": 4294,
      "tegr": 4295,
      "scherm": 4296,
      "Ġfre": 4297,
      "Ġregen": 4298,
      "aanderen": 4299,
      "Ġleiding": 4300,
      "Ġoverige": 4301,
      "ĠWord": 4302,
      "ims": 4303,
      "Ġ22": 4304,
      "icon": 4305,
      "ĠTot": 4306,
      "ĠCon": 4307,
      "elend": 4308,
      "Ġschimmel": 4309,
      "Ġriv": 4310,
      "ĠKon": 4311,
      "Ġdaardoor": 4312,
      "Ġdaarnaast": 4313,
      "Ġblad": 4314,
      "Ġgoedkoop": 4315,
      "Ġhiervan": 4316,
      "Ġterrein": 4317,
      "houding": 4318,
      "ock": 4319,
      "Ġgezin": 4320,
      "Ġgedurende": 4321,
      "uiden": 4322,
      "Ġvrijwel": 4323,
      "Ġhandig": 4324,
      "Ġvaker": 4325,
      "Ġopenen": 4326,
      "ĠChina": 4327,
      "Ġpersoons": 4328,
      "Ġrechtstreeks": 4329,
      "Ġ70": 4330,
      "ypn": 4331,
      "rekening": 4332,
      "handel": 4333,
      "ĠOmdat": 4334,
      "ourn": 4335,
      "Ġgroeien": 4336,
      "Ġheerlijke": 4337,
      "Onder": 4338,
      "Ġtrein": 4339,
      "Ġversie": 4340,
      "Ġverwijderen": 4341,
      "Ġredelijk": 4342,
      "Ġbegeleiding": 4343,
      "Ġnoodzak": 4344,
      "Ġinternationale": 4345,
      "ĠNew": 4346,
      "Ġadvertenties": 4347,
      "Ġdonker": 4348,
      "Ġliever": 4349,
      "producten": 4350,
      "Ġtablet": 4351,
      "Ġarbeids": 4352,
      "Ġcirca": 4353,
      "Ġprincip": 4354,
      "Ġdiscussie": 4355,
      "Ġregering": 4356,
      "An": 4357,
      "EM": 4358,
      "Pro": 4359,
      "Te": 4360,
      "bum": 4361,
      "bos": 4362,
      "cy": 4363,
      "daan": 4364,
      "gbaar": 4365,
      "kamers": 4366,
      "nummer": 4367,
      "oz": 4368,
      "ping": 4369,
      "wek": 4370,
      "Ġvuur": 4371,
      "inken": 4372,
      "Ġhum": 4373,
      "Ġmusea": 4374,
      "iegel": 4375,
      "Ġesp": 4376,
      "Ġaspect": 4377,
      "Ġzol": 4378,
      "Ġkies": 4379,
      "Ġneg": 4380,
      "reen": 4381,
      "igin": 4382,
      "Ġverj": 4383,
      "Ġverleden": 4384,
      "Ġvoordelen": 4385,
      "Ġallen": 4386,
      "urt": 4387,
      "Ġaanbe": 4388,
      "Ġstoppen": 4389,
      "rak": 4390,
      "schak": 4391,
      "Ġfoil": 4392,
      "ĠBu": 4393,
      "ĠAu": 4394,
      "ĠAir": 4395,
      "ĠSoc": 4396,
      "Ġbijbel": 4397,
      "agne": 4398,
      "Ġrepar": 4399,
      "Ġwest": 4400,
      "ĠTurk": 4401,
      "Ġwaarna": 4402,
      "Ġonderhouds": 4403,
      "itect": 4404,
      "Ġscholen": 4405,
      "Ġbloed": 4406,
      "Ġbestelling": 4407,
      "Ġ2012": 4408,
      "aamse": 4409,
      "Ġroute": 4410,
      "Ġgeloven": 4411,
      "Ġkwal": 4412,
      "Ġdagelijks": 4413,
      "Ġsamenleving": 4414,
      "essie": 4415,
      "Ġhelder": 4416,
      "ertific": 4417,
      "Ġverwarming": 4418,
      "Ġ2007": 4419,
      "Ġ2008": 4420,
      "Ġverzoek": 4421,
      "Ġgekocht": 4422,
      "doende": 4423,
      "middelen": 4424,
      "Ġbesloten": 4425,
      "Ġoptim": 4426,
      "Ġoptimaal": 4427,
      "Ġdoelgroep": 4428,
      "Ġwinkels": 4429,
      "Ġsteun": 4430,
      "Ġsteent": 4431,
      "ĠGeorg": 4432,
      "rassen": 4433,
      "ielever": 4434,
      "Ġheden": 4435,
      "ieuze": 4436,
      "Ġtransport": 4437,
      "Ġafspraak": 4438,
      "visie": 4439,
      "Ġhave": 4440,
      "Ġgezellig": 4441,
      "ĠÃł": 4442,
      "Ġnadat": 4443,
      "ĠItali": 4444,
      "Ġagenda": 4445,
      "Ġhoeveelheid": 4446,
      "Ġpersoneel": 4447,
      "Ġdubbel": 4448,
      "Ġdankzij": 4449,
      "Ġaantrek": 4450,
      "Ġspecifieke": 4451,
      "itiatief": 4452,
      "Ġcursus": 4453,
      "Ġziekenhuis": 4454,
      "-,": 4455,
      "60": 4456,
      "Hij": 4457,
      "Laat": 4458,
      "MW": 4459,
      "OL": 4460,
      "OS": 4461,
      "RE": 4462,
      "bor": 4463,
      "bers": 4464,
      "fst": 4465,
      "gde": 4466,
      "gere": 4467,
      "heer": 4468,
      "hoog": 4469,
      "kunst": 4470,
      "nel": 4471,
      "pte": 4472,
      "porn": 4473,
      "ringen": 4474,
      "soft": 4475,
      "wol": 4476,
      "will": 4477,
      "winkel": 4478,
      "ym": 4479,
      "ysteem": 4480,
      "Ġding": 4481,
      "elder": 4482,
      "Ġhoort": 4483,
      "Ġmy": 4484,
      "Ġmuur": 4485,
      "Ġmeen": 4486,
      "Ġmorgen": 4487,
      "Ġwinnen": 4488,
      "Ġtrek": 4489,
      "Ġkat": 4490,
      "Ġkwij": 4491,
      "Ġnamen": 4492,
      "Ġinzet": 4493,
      "Ġgekomen": 4494,
      "Ġgeef": 4495,
      "Ġgeorganis": 4496,
      "Ġopper": 4497,
      "Ġtemp": 4498,
      "alk": 4499,
      "aler": 4500,
      "Ġverwerken": 4501,
      "Ġvoorm": 4502,
      "Ġvoordel": 4503,
      "ĠDr": 4504,
      "eers": 4505,
      "eerden": 4506,
      "Ġlage": 4507,
      "Ġall": 4508,
      "Ġaanzien": 4509,
      "Ġaankoop": 4510,
      "Ġstim": 4511,
      "Ġstructuur": 4512,
      "ama": 4513,
      "ament": 4514,
      "Ġcar": 4515,
      "Ġcou": 4516,
      "Ġomstandigheden": 4517,
      "ĠHam": 4518,
      "rug": 4519,
      "ĠBo": 4520,
      "ĠBed": 4521,
      "ĠAL": 4522,
      "ĠSinds": 4523,
      "Ġovereen": 4524,
      "Ġ29": 4525,
      "apsych": 4526,
      "Ġproduc": 4527,
      "Ġgeboren": 4528,
      "Ġafd": 4529,
      "ĠZand": 4530,
      "Ġrele": 4531,
      "Ġwelkom": 4532,
      "ĠRes": 4533,
      "wereld": 4534,
      "osc": 4535,
      "ocus": 4536,
      "ĠAll": 4537,
      "ĠEngel": 4538,
      "Ġhoeven": 4539,
      "Ġwerkelijk": 4540,
      "Ġcontrol": 4541,
      "Ġverbeter": 4542,
      "ĠDaarbij": 4543,
      "Ġzorgverlen": 4544,
      "diensten": 4545,
      "Ġvloe": 4546,
      "Ġwetenschap": 4547,
      "Ġ2009": 4548,
      "deelte": 4549,
      "Ġontwikkeld": 4550,
      "ĠAnode": 4551,
      "Ġbereik": 4552,
      "Ġbereid": 4553,
      "Ġervaringen": 4554,
      "gaande": 4555,
      "Ġlandschap": 4556,
      "Ġbesliss": 4557,
      "Ġartikelen": 4558,
      "ĠBlack": 4559,
      "Ġcentrale": 4560,
      "Ġsupermarkt": 4561,
      "box": 4562,
      "Ġclub": 4563,
      "duceerd": 4564,
      "Ġpublic": 4565,
      "Ġprivacy": 4566,
      "Ġvoedings": 4567,
      "auto": 4568,
      "Ġapparaten": 4569,
      "Ġaanpassen": 4570,
      "stukken": 4571,
      "Ġinstallatie": 4572,
      "blemen": 4573,
      "vriendelijke": 4574,
      "Ġenergielever": 4575,
      "icrosoft": 4576,
      "ĠIndia": 4577,
      "otheek": 4578,
      "Ġtermijn": 4579,
      "ĠDuurstede": 4580,
      "Ġdaadwerk": 4581,
      "eliciteerd": 4582,
      "Ġbevolking": 4583,
      "',": 4584,
      "70": 4585,
      "AT": 4586,
      "Ben": 4587,
      "CH": 4588,
      "GP": 4589,
      "HD": 4590,
      "Is": 4591,
      "Meer": 4592,
      "Pl": 4593,
      "Wie": 4594,
      "ept": 4595,
      "haal": 4596,
      "mis": 4597,
      "pijn": 4598,
      "rat": 4599,
      "see": 4600,
      "uste": 4601,
      "wood": 4602,
      "watch": 4603,
      "zon": 4604,
      "Ġ#": 4605,
      "Ġvro": 4606,
      "Ġvirtu": 4607,
      "Ġoven": 4608,
      "Ġhu": 4609,
      "Ġhuren": 4610,
      "orest": 4611,
      "Ġmaal": 4612,
      "Ġbaan": 4613,
      "Ġbodem": 4614,
      "Ġgaf": 4615,
      "Ġtonen": 4616,
      "Ġzuid": 4617,
      "Ġkast": 4618,
      "Ġkab": 4619,
      "Ġnat": 4620,
      "Ġinvest": 4621,
      "Ġinwoners": 4622,
      "ĠgeÃ¯": 4623,
      "Ġpand": 4624,
      "Ġsing": 4625,
      "Ġbeveil": 4626,
      "Ġvervoer": 4627,
      "Ġvoorstelling": 4628,
      "ĠDE": 4629,
      "gegeven": 4630,
      "otte": 4631,
      "ĠHolland": 4632,
      "Ġerbij": 4633,
      "Ġfra": 4634,
      "ĠBoden": 4635,
      "ical": 4636,
      "ĠZie": 4637,
      "ĠZee": 4638,
      "Ġwellicht": 4639,
      "Ġplus": 4640,
      "Ġconst": 4641,
      "Ġbloe": 4642,
      "Ġgebruikte": 4643,
      "Ġslim": 4644,
      "Ġsluit": 4645,
      "gebracht": 4646,
      "ĠStichting": 4647,
      "Ġproef": 4648,
      "asser": 4649,
      "Ġorigin": 4650,
      "ally": 4651,
      "ikking": 4652,
      "obby": 4653,
      "Ġappel": 4654,
      "ĠBijvoorbeeld": 4655,
      "jecten": 4656,
      "Ġpartic": 4657,
      "Ġopenbaar": 4658,
      "Ġouderen": 4659,
      "Ġaanbouw": 4660,
      "gestelde": 4661,
      "Ġideaal": 4662,
      "Ġverdw": 4663,
      "insdag": 4664,
      "bedrijven": 4665,
      "Ġbrede": 4666,
      "ĠZwarte": 4667,
      "Ġvergelijking": 4668,
      "vorming": 4669,
      "ĠDuitse": 4670,
      "Ġpopulaire": 4671,
      "Ġlastig": 4672,
      "Ġgraden": 4673,
      "Ġpresident": 4674,
      "Ġeventuele": 4675,
      "Ġnauwelijks": 4676,
      "Ġgezellige": 4677,
      "Ġzichtbaar": 4678,
      "Ġpoint": 4679,
      "Ġbescherming": 4680,
      "Ġburger": 4681,
      "Ġlogo": 4682,
      "ĠBrussel": 4683,
      "Ġgods": 4684,
      "Ġverkrijgbaar": 4685,
      "Ġtrend": 4686,
      "Ġonderzoeken": 4687,
      "ĠHaarlem": 4688,
      "positie": 4689,
      "ĠSmart": 4690,
      "Ġontspannen": 4691,
      "ownload": 4692,
      "Ġitems": 4693,
      "tegenwoord": 4694,
      "Ġapplicatie": 4695,
      "Ġhangt": 4696,
      "Ġvroeger": 4697,
      "Ġfavoriete": 4698,
      "ĠRomeinse": 4699,
      "Geef": 4700,
      "Heb": 4701,
      "Press": 4702,
      "Ze": 4703,
      "even": 4704,
      "feest": 4705,
      "hof": 4706,
      "ius": 4707,
      "kingen": 4708,
      "lingen": 4709,
      "mod": 4710,
      "pop": 4711,
      "uze": 4712,
      "wat": 4713,
      "wicht": 4714,
      "wassen": 4715,
      "Ġvent": 4716,
      "station": 4717,
      "stoffen": 4718,
      "Ġberg": 4719,
      "Ġbanden": 4720,
      "Ġemot": 4721,
      "Ġeisen": 4722,
      "Ġtyp": 4723,
      "chen": 4724,
      "Ġas": 4725,
      "atr": 4726,
      "ats": 4727,
      "Ġkool": 4728,
      "Ġnee": 4729,
      "Ġincl": 4730,
      "Ġgesloten": 4731,
      "Ġsoftware": 4732,
      "Ġopgenomen": 4733,
      "arden": 4734,
      "Ġliet": 4735,
      "gek": 4736,
      "ury": 4737,
      "urity": 4738,
      "verw": 4739,
      "iliteit": 4740,
      "uner": 4741,
      "rad": 4742,
      "rust": 4743,
      "Ġuitleg": 4744,
      "ĠBar": 4745,
      "ĠMon": 4746,
      "ĠAcc": 4747,
      "ĠVeren": 4748,
      "icker": 4749,
      "ĠNation": 4750,
      "ĠGem": 4751,
      "ĠOpen": 4752,
      "ĠOnt": 4753,
      "ĠPa": 4754,
      "Ġondernemers": 4755,
      "Ġschak": 4756,
      "Ġschui": 4757,
      "Ġronde": 4758,
      "oeding": 4759,
      "Ġwelk": 4760,
      "ĠKijk": 4761,
      "bestrij": 4762,
      "Ġnogal": 4763,
      "Ã©l": 4764,
      "Ġgren": 4765,
      "Ġplanten": 4766,
      "Ġbetaalde": 4767,
      "ĠInn": 4768,
      "ĠInst": 4769,
      "Ã«l": 4770,
      "egaaien": 4771,
      "voorzien": 4772,
      "Ġjaarlijk": 4773,
      "Ġtoestel": 4774,
      "Ġbedre": 4775,
      "duid": 4776,
      "opend": 4777,
      "Ġsluiten": 4778,
      "Ġexter": 4779,
      "merc": 4780,
      "Ġbeneden": 4781,
      "Ġcontrole": 4782,
      "Ġbeheer": 4783,
      "Ġprett": 4784,
      "ifte": 4785,
      "Ġluisteren": 4786,
      "Ġchec": 4787,
      "Ġmoeder": 4788,
      "ĠOns": 4789,
      "ĠOnline": 4790,
      "Ġnetjes": 4791,
      "Ġmagaz": 4792,
      "ĠZoals": 4793,
      "Ġbuitenland": 4794,
      "Ġaanbieden": 4795,
      "!!!": 4796,
      "Ġmiddelen": 4797,
      "Ġaanvullen": 4798,
      "Ġgroepen": 4799,
      "risis": 4800,
      "Ġredenen": 4801,
      "velop": 4802,
      "ministratie": 4803,
      "Ġvoeding": 4804,
      "ollar": 4805,
      "ĠNieuwe": 4806,
      "ĠInternet": 4807,
      "Ġuitstekend": 4808,
      "Ġboodschappen": 4809,
      "Ġinteressant": 4810,
      "Ġbeoordelingen": 4811,
      "Volgens": 4812,
      "breng": 4813,
      "Ġbetrouwbare": 4814,
      "Ġbeweging": 4815,
      "Ġwedstrijd": 4816,
      "Ġinnovatie": 4817,
      "cedure": 4818,
      "DESC": 4819,
      "estival": 4820,
      "Ġoefen": 4821,
      "Ġaccommodatie": 4822,
      "Ġfantast": 4823,
      "Ġvoornamelijk": 4824,
      "Ġspiritu": 4825,
      "Ġrivier": 4826,
      "Ġespress": 4827,
      "Ġkwijt": 4828,
      "27": 4829,
      "AM": 4830,
      "Uit": 4831,
      "aven": 4832,
      "din": 4833,
      "dom": 4834,
      "ih": 4835,
      "kers": 4836,
      "links": 4837,
      "oond": 4838,
      "pel": 4839,
      "raat": 4840,
      "wijd": 4841,
      "Ġdre": 4842,
      "Ġvul": 4843,
      "Ġmond": 4844,
      "Ġmuseum": 4845,
      "Ġtient": 4846,
      "Ġadem": 4847,
      "ated": 4848,
      "Ġzand": 4849,
      "Ġkip": 4850,
      "Ġeenmaal": 4851,
      "Ġnam": 4852,
      "Ġnodige": 4853,
      "Ġpens": 4854,
      "dert": 4855,
      "derij": 4856,
      "oest": 4857,
      "alo": 4858,
      "alorie": 4859,
      "arde": 4860,
      "Ġverdien": 4861,
      "Ġverspre": 4862,
      "Ġvertegenwoord": 4863,
      "Ġvooruit": 4864,
      "ĠDenk": 4865,
      "kennen": 4866,
      "urele": 4867,
      "Ġstab": 4868,
      "Ġomgaan": 4869,
      "Ġfout": 4870,
      "Ġfrom": 4871,
      "rijving": 4872,
      "ĠBrit": 4873,
      "ĠMin": 4874,
      "ĠMich": 4875,
      "ĠMicrosoft": 4876,
      "ĠAc": 4877,
      "ĠEind": 4878,
      "ĠSk": 4879,
      "Ġbijv": 4880,
      "kten": 4881,
      "Ġlees": 4882,
      "icus": 4883,
      "ĠNZ": 4884,
      "adres": 4885,
      "ĠOr": 4886,
      "ĠLED": 4887,
      "Ġonderwerp": 4888,
      "ĠZorg": 4889,
      "Ġret": 4890,
      "ĠKom": 4891,
      "utie": 4892,
      "achtig": 4893,
      "Ġplanning": 4894,
      "Ġbloem": 4895,
      "Ġhiermee": 4896,
      "eci": 4897,
      "ĠEnkele": 4898,
      "rachten": 4899,
      "Ġhoef": 4900,
      "anner": 4901,
      "Ġgener": 4902,
      "Ġeigenaar": 4903,
      "Ġbenieuwd": 4904,
      "ekker": 4905,
      "ĠStad": 4906,
      "Ġhoud": 4907,
      "Ġpraten": 4908,
      "Ġbezocht": 4909,
      "Ġzwaar": 4910,
      "Ġvrije": 4911,
      "ows": 4912,
      "Alle": 4913,
      "Ġkinderporn": 4914,
      "Ġverloren": 4915,
      "Ġinstantie": 4916,
      "ĠChinese": 4917,
      "Ġrad": 4918,
      "Ġvormt": 4919,
      "Ġrondom": 4920,
      "Ġmiddag": 4921,
      "Ġplaatse": 4922,
      "zaamheid": 4923,
      "Ġstukken": 4924,
      "herap": 4925,
      "ĠElia": 4926,
      "woning": 4927,
      "Ġbeleid": 4928,
      "ĠTegen": 4929,
      "index": 4930,
      "schappij": 4931,
      "Ġconsumenten": 4932,
      "Ġverwijderd": 4933,
      "Ġmotor": 4934,
      "Ġinfo": 4935,
      "Ġvoertu": 4936,
      "sluitend": 4937,
      "kwaliteit": 4938,
      "ĠItaliÃ«": 4939,
      "Ġtarieven": 4940,
      "ĠLuc": 4941,
      "Ġbijdrage": 4942,
      "Ġboodschap": 4943,
      "--------": 4944,
      "Ġvereniging": 4945,
      "ĠiPad": 4946,
      "Ġwerkzaamheden": 4947,
      "Ġvitamine": 4948,
      "ĠHelaas": 4949,
      "Ġreageren": 4950,
      "ĠcreÃ«ren": 4951,
      "MSG": 4952,
      "Ġcijfers": 4953,
      "Ġvliegtuig": 4954,
      "ĠIndiase": 4955,
      "obalamine": 4956,
      "ĠWordPress": 4957,
      "Ġpersoonsgegevens": 4958,
      "24": 4959,
      "78": 4960,
      "Ch": 4961,
      "Die": 4962,
      "Heeft": 4963,
      "Kl": 4964,
      "OU": 4965,
      "Sp": 4966,
      "Sch": 4967,
      "azen": 4968,
      "borg": 4969,
      "comm": 4970,
      "fan": 4971,
      "front": 4972,
      "go": 4973,
      "gerecht": 4974,
      "hos": 4975,
      "meer": 4976,
      "pect": 4977,
      "rÃ¨": 4978,
      "vat": 4979,
      "wet": 4980,
      "way": 4981,
      "Ġijs": 4982,
      "Ġdia": 4983,
      "Ġvoegen": 4984,
      "Ġvaardigheden": 4985,
      "inke": 4986,
      "ete": 4987,
      "Ġhom": 4988,
      "Ġhaal": 4989,
      "Ġheu": 4990,
      "Ġdeuren": 4991,
      "Ġmg": 4992,
      "Ġmate": 4993,
      "Ġwarme": 4994,
      "Ġball": 4995,
      "Ġbaby": 4996,
      "Ġtel": 4997,
      "Ġtime": 4998,
      "chec": 4999,
      "Ġzul": 5000,
      "itair": 5001,
      "Ġnoord": 5002,
      "Ġniemand": 5003,
      "Ġintens": 5004,
      "oeker": 5005,
      "Ġverlen": 5006,
      "Ġverstand": 5007,
      "Ġverster": 5008,
      "Ġverwerkt": 5009,
      "romen": 5010,
      "ĠDu": 5011,
      "Ġlook": 5012,
      "geen": 5013,
      "vereenkomst": 5014,
      "olpen": 5015,
      "Ġcond": 5016,
      "ted": 5017,
      "ĠHeer": 5018,
      "ĠHeeft": 5019,
      "ĠHaag": 5020,
      "Ġernst": 5021,
      "Ġuitbre": 5022,
      "eeland": 5023,
      "ĠBMW": 5024,
      "ĠMart": 5025,
      "ĠAb": 5026,
      "ĠAj": 5027,
      "ĠEm": 5028,
      "ĠSGP": 5029,
      "usc": 5030,
      "aanb": 5031,
      "Ġleidt": 5032,
      "ĠWor": 5033,
      "ĠWeb": 5034,
      "ĠWater": 5035,
      "ĠVS": 5036,
      "ĠVeg": 5037,
      "ĠCo": 5038,
      "spec": 5039,
      "Ġondernemer": 5040,
      "Ġspe": 5041,
      "Ġschrijf": 5042,
      "ĠZeeuw": 5043,
      "vefan": 5044,
      "ĠâĢŀ": 5045,
      "ĠRed": 5046,
      "ĠJos": 5047,
      "Ġontzetten": 5048,
      "Ġontstaat": 5049,
      "achtige": 5050,
      "oss": 5051,
      "Ġmening": 5052,
      "Ġklass": 5053,
      "Ġgewijz": 5054,
      "Ġhierdoor": 5055,
      "Ġtoegevoegd": 5056,
      "Ġbedoeld": 5057,
      "Ġgebruiks": 5058,
      "ingsver": 5059,
      "Ġbellen": 5060,
      "Ġmeis": 5061,
      "iviteit": 5062,
      "bli": 5063,
      "Ġexpl": 5064,
      "Ġcontain": 5065,
      "Ġbehoort": 5066,
      "bergen": 5067,
      "Ġevenals": 5068,
      "Ġprint": 5069,
      "ustr": 5070,
      "assingen": 5071,
      "urovereenkomst": 5072,
      "Ġvrijblijven": 5073,
      "club": 5074,
      "clair": 5075,
      "tuin": 5076,
      "Ġplekken": 5077,
      "ario": 5078,
      "Ġ80": 5079,
      "alisatie": 5080,
      "Ġmisbruik": 5081,
      "versie": 5082,
      "ING": 5083,
      "Ġvermogen": 5084,
      "Ġreser": 5085,
      "straling": 5086,
      "Ġbrief": 5087,
      "ĠHiermee": 5088,
      "adering": 5089,
      "Ġuniek": 5090,
      "vinden": 5091,
      "Ġafgesloten": 5092,
      "Ġsterke": 5093,
      "Ġ90": 5094,
      "vestigd": 5095,
      "Ġeffectief": 5096,
      "Ġkopp": 5097,
      "ĠTechn": 5098,
      "ĠGrand": 5099,
      "Ġkaartje": 5100,
      "Ġgeweldige": 5101,
      "www": 5102,
      "Ġaanpak": 5103,
      "Ġgebouwd": 5104,
      "Ġwarmtepomp": 5105,
      "Ġqua": 5106,
      "Ġbalans": 5107,
      "Ġsalaf": 5108,
      "Ġmaximaal": 5109,
      "Ġolie": 5110,
      "Ġuitstekende": 5111,
      "flict": 5112,
      "Ġexpert": 5113,
      "Wilt": 5114,
      "Ġverkrijgen": 5115,
      "Ġevenementen": 5116,
      "Ġtrouwens": 5117,
      "Ġschrijft": 5118,
      "stemd": 5119,
      "Ġfilmpje": 5120,
      "Ġdetails": 5121,
      "ĠPaphos": 5122,
      "Ġhistorische": 5123,
      "Ġsleutel": 5124,
      "Ġmaagband": 5125,
      "ĠVakantiehuizen": 5126,
      "ĠNederl": 5127,
      "ĠArnhem": 5128,
      "Ġnoodzakelijk": 5129,
      "Ġhuurovereenkomst": 5130,
      "ĠBodensee": 5131,
      "ĠSmartwatch": 5132,
      "egaaienkooi": 5133,
      ".,": 5134,
      ".âĢĿ": 5135,
      "AD": 5136,
      "EA": 5137,
      "Gr": 5138,
      "Nieuw": 5139,
      "OT": 5140,
      "Veel": 5141,
      "aderen": 5142,
      "car": 5143,
      "do": 5144,
      "dore": 5145,
      "eut": 5146,
      "huur": 5147,
      "hoek": 5148,
      "iwit": 5149,
      "po": 5150,
      "zone": 5151,
      "zins": 5152,
      "ertijd": 5153,
      "Ġdonderdag": 5154,
      "Ġvoren": 5155,
      "Ġvilla": 5156,
      "Ġharte": 5157,
      "orte": 5158,
      "oriteit": 5159,
      "Ġboot": 5160,
      "Ġtij": 5161,
      "Ġac": 5162,
      "Ġzoo": 5163,
      "Ġker": 5164,
      "Ġnou": 5165,
      "Ġnoem": 5166,
      "inger": 5167,
      "Ġgewerkt": 5168,
      "Ġgeopend": 5169,
      "Ġpak": 5170,
      "Ġport": 5171,
      "dek": 5172,
      "Ġsol": 5173,
      "Ġjammer": 5174,
      "Ġopl": 5175,
      "Ġopgel": 5176,
      "Ġopzicht": 5177,
      "Ġopbouw": 5178,
      "Ġopnemen": 5179,
      "Ġtegelijk": 5180,
      "alig": 5181,
      "Ġbewijs": 5182,
      "Ġvernieuw": 5183,
      "Ġvoorraad": 5184,
      "Ġvoorwaarden": 5185,
      "omie": 5186,
      "ĠDankzij": 5187,
      "Ġlijken": 5188,
      "Ġalgemene": 5189,
      "gekomen": 5190,
      "gene": 5191,
      "Ġaanget": 5192,
      "ilet": 5193,
      "Ġstop": 5194,
      "olven": 5195,
      "andaag": 5196,
      "Ġcode": 5197,
      "team": 5198,
      "ĠHD": 5199,
      "Ġfles": 5200,
      "Ġuiteen": 5201,
      "Ġuitspraak": 5202,
      "ĠMax": 5203,
      "ĠSuper": 5204,
      "agn": 5205,
      "ĠDeorol": 5206,
      "Ġreiz": 5207,
      "Ġoverw": 5208,
      "Ġoverleg": 5209,
      "Ġweig": 5210,
      "Ġwezen": 5211,
      "ĠWer": 5212,
      "ĠIN": 5213,
      "ement": 5214,
      "Ġalsof": 5215,
      "sens": 5216,
      "Ġzover": 5217,
      "Ġzogenaam": 5218,
      "ĠNij": 5219,
      "adat": 5220,
      "ĠTuin": 5221,
      "ĠGen": 5222,
      "ĠGene": 5223,
      "Ġwaarvoor": 5224,
      "ĠPart": 5225,
      "Ġondergrond": 5226,
      "Ġonderneming": 5227,
      "Ġspaar": 5228,
      "Ġmode": 5229,
      "Ġscherm": 5230,
      "ĠKar": 5231,
      "ĠKoop": 5232,
      "bestand": 5233,
      "Ġbetrekking": 5234,
      "ions": 5235,
      "ĠFre": 5236,
      "Ġgroenten": 5237,
      "Ġblok": 5238,
      "edia": 5239,
      "onderzoek": 5240,
      "Ġtoestemming": 5241,
      "Ġtoern": 5242,
      "Ġgevaar": 5243,
      "Ġgevangen": 5244,
      "Ġcommerc": 5245,
      "ukkig": 5246,
      "Ġzelfstandig": 5247,
      "wijzen": 5248,
      "Ġwerkgever": 5249,
      "ultuur": 5250,
      "Ġgeleerd": 5251,
      "Indien": 5252,
      "Ġbehoor": 5253,
      "Ġeveneens": 5254,
      "Ġevenwicht": 5255,
      "Ġarm": 5256,
      "Ġorde": 5257,
      "Ġapps": 5258,
      "ontwikk": 5259,
      "Ġverwar": 5260,
      "Ġinstellingen": 5261,
      "Ġcomplex": 5262,
      "houdend": 5263,
      "Ġaangegeven": 5264,
      "Ġboekdruk": 5265,
      "Ġgespeci": 5266,
      "Ġorganiseren": 5267,
      "Ġgerust": 5268,
      "ologisch": 5269,
      "Ġopgeslagen": 5270,
      "Ġmenselijke": 5271,
      "ublic": 5272,
      "iba": 5273,
      "Ġveilige": 5274,
      "Ġyour": 5275,
      "Ġverandering": 5276,
      "Ġgroei": 5277,
      "install": 5278,
      "Ġkregen": 5279,
      "EST": 5280,
      "schappelijk": 5281,
      "Ġcoron": 5282,
      "Omdat": 5283,
      "Ġontdekt": 5284,
      "gewicht": 5285,
      "ĠFlor": 5286,
      "Ġdichter": 5287,
      "Ã³Ã³": 5288,
      "Ġbrood": 5289,
      "ĠFranse": 5290,
      "ĠKlik": 5291,
      "Ġondersteunen": 5292,
      "Ġtarief": 5293,
      "gebruikers": 5294,
      "Ġinternationaal": 5295,
      "ĠParijs": 5296,
      "Ġzenuwblokkade": 5297,
      "kkoord": 5298,
      "Ġsatijn": 5299,
      "Ġgeregist": 5300,
      "Ġinspiratie": 5301,
      "Ġsympt": 5302,
      "esluit": 5303,
      "ĠZwitserland": 5304,
      "machine": 5305,
      "Ġcorrect": 5306,
      "Ġsubsidie": 5307,
      "ĠBerger": 5308,
      "ypnose": 5309,
      "Ġverjaard": 5310,
      "ĠAuclair": 5311,
      "bestrijding": 5312,
      "Ġontzettend": 5313,
      "dorex": 5314,
      "ĠDeoroller": 5315,
      "95": 5316,
      "Bl": 5317,
      "Dan": 5318,
      "The": 5319,
      "cm": 5320,
      "colle": 5321,
      "eet": 5322,
      "feed": 5323,
      "hang": 5324,
      "ique": 5325,
      "lijn": 5326,
      "sung": 5327,
      "vies": 5328,
      "vuldig": 5329,
      "wasser": 5330,
      "ermen": 5331,
      "ana": 5332,
      "inu": 5333,
      "Ġocht": 5334,
      "Ġhers": 5335,
      "Ġhtt": 5336,
      "aads": 5337,
      "Ġmelden": 5338,
      "Ġwett": 5339,
      "Ġbod": 5340,
      "Ġboet": 5341,
      "Ġgoud": 5342,
      "Ġakkoord": 5343,
      "Ġzingen": 5344,
      "ison": 5345,
      "Ġkeur": 5346,
      "Ġner": 5347,
      "lezen": 5348,
      "Ġgedeelte": 5349,
      "Ġgevestigd": 5350,
      "Ġpaard": 5351,
      "Ġsand": 5352,
      "Ġsug": 5353,
      "oeft": 5354,
      "Ġopvallen": 5355,
      "Ġbeurs": 5356,
      "ĠbeÃ¯n": 5357,
      "ary": 5358,
      "aret": 5359,
      "Ġvervol": 5360,
      "Ġlied": 5361,
      "Ġlach": 5362,
      "ges": 5363,
      "iker": 5364,
      "unch": 5365,
      "Ġstarten": 5366,
      "amox": 5367,
      "Ġcount": 5368,
      "ote": 5369,
      "Ġoma": 5370,
      "idings": 5371,
      "ĠHoge": 5372,
      "ebruik": 5373,
      "Ġuitdag": 5374,
      "ĠBB": 5375,
      "agers": 5376,
      "iende": 5377,
      "Ġresp": 5378,
      "Ġ150": 5379,
      "anties": 5380,
      "Ġoverst": 5381,
      "ĠVrij": 5382,
      "Ġ27": 5383,
      "ĠTran": 5384,
      "ĠOdorex": 5385,
      "aps": 5386,
      "Ġkanaal": 5387,
      "Ġonderhouden": 5388,
      "elende": 5389,
      "Ġraakt": 5390,
      "ĠRaad": 5391,
      "ĠRoy": 5392,
      "bec": 5393,
      "Ġmach": 5394,
      "achter": 5395,
      "Ġdaarin": 5396,
      "Ġconcent": 5397,
      "ella": 5398,
      "Ġklik": 5399,
      "Ġhierboven": 5400,
      "Ġwijst": 5401,
      "wijze": 5402,
      "Ġtegenover": 5403,
      "Ġtegenstelling": 5404,
      "Ġextre": 5405,
      "....": 5406,
      "Ġbeschikking": 5407,
      "voldoende": 5408,
      "Ġbehoren": 5409,
      "bert": 5410,
      "berichten": 5411,
      "Ġverbouw": 5412,
      "Ġsupport": 5413,
      "Ġautob": 5414,
      "ifen": 5415,
      "rong": 5416,
      "roningen": 5417,
      "Ġthee": 5418,
      "Ġgehaald": 5419,
      "Ġvrijwill": 5420,
      "ĠErik": 5421,
      "Ġhandel": 5422,
      "obile": 5423,
      "Ġverlichting": 5424,
      "Ġvergro": 5425,
      "Ġvergeten": 5426,
      "Ġdirecteur": 5427,
      "ureel": 5428,
      "braak": 5429,
      "Ġverdere": 5430,
      "2017": 5431,
      "Ġregelen": 5432,
      "Ġrelaties": 5433,
      "Ġrelax": 5434,
      "Ġverdiep": 5435,
      "skun": 5436,
      "Ġaccess": 5437,
      "ĠLevefan": 5438,
      "Ġcentraal": 5439,
      "Ġknop": 5440,
      "Ġopleidingen": 5441,
      "Ġbetekenis": 5442,
      "Ġvorig": 5443,
      "Ġvakantiehuis": 5444,
      "eedback": 5445,
      "Ġintro": 5446,
      "Ġgevolgd": 5447,
      "Ġtechnieken": 5448,
      "vereniging": 5449,
      "Ġbeperking": 5450,
      "Ġfinancieel": 5451,
      "Ġgeweldig": 5452,
      "Ġgebeurd": 5453,
      "Ġleerlingen": 5454,
      "Ġschilders": 5455,
      "Ġgelegenheid": 5456,
      "Ġspelers": 5457,
      "Ġlessen": 5458,
      "ĠUnivers": 5459,
      "Ġcoach": 5460,
      "controle": 5461,
      "halve": 5462,
      "worpen": 5463,
      "Ġbijdragen": 5464,
      "Ġfysieke": 5465,
      "Ġevenement": 5466,
      "Ġgerechten": 5467,
      "rastructuur": 5468,
      "Ġuitgerust": 5469,
      "Ġbediening": 5470,
      "Ġingred": 5471,
      "Ġappartement": 5472,
      "iÃ«rs": 5473,
      "Ġpolitiek": 5474,
      "Ġvacat": 5475,
      "Ġdemocratie": 5476,
      "ĠZelfs": 5477,
      "Ġkwalit": 5478,
      "Ġoptimaliseren": 5479,
      "Ġdaadwerkelijk": 5480,
      "ĠGeneva": 5481,
      "Ġochtend": 5482,
      "amoxifen": 5483,
      "26": 5484,
      "39": 5485,
      "375": 5486,
      "Af": 5487,
      "Ar": 5488,
      "AHD": 5489,
      "EC": 5490,
      "Ja": 5491,
      "Le": 5492,
      "Nederland": 5493,
      "Naast": 5494,
      "OA": 5495,
      "Re": 5496,
      "aft": 5497,
      "ave": 5498,
      "bord": 5499,
      "die": 5500,
      "ditie": 5501,
      "geld": 5502,
      "grepen": 5503,
      "hent": 5504,
      "iver": 5505,
      "kundige": 5506,
      "lucht": 5507,
      "materiaal": 5508,
      "nam": 5509,
      "naam": 5510,
      "oT": 5511,
      "oaden": 5512,
      "riet": 5513,
      "raaf": 5514,
      "service": 5515,
      "tw": 5516,
      "tie": 5517,
      "ugen": 5518,
      "yt": 5519,
      "yse": 5520,
      "eng": 5521,
      "Ġdur": 5522,
      "Ġdun": 5523,
      "Ġdinsdag": 5524,
      "Ġdollar": 5525,
      "Ġvracht": 5526,
      "ely": 5527,
      "eland": 5528,
      "Ġhon": 5529,
      "Ġhopen": 5530,
      "Ġheil": 5531,
      "Ġhaalt": 5532,
      "Ġwinst": 5533,
      "Ġbang": 5534,
      "Ġbut": 5535,
      "Ġboer": 5536,
      "Ġbureau": 5537,
      "Ġem": 5538,
      "Ġtamoxifen": 5539,
      "atiet": 5540,
      "iswaar": 5541,
      "Ġkeren": 5542,
      "Ġkaas": 5543,
      "Ġkern": 5544,
      "ĠkWh": 5545,
      "iteren": 5546,
      "Ġinitiatief": 5547,
      "onn": 5548,
      "ĠgeÃ«": 5549,
      "Ġpad": 5550,
      "Ġsne": 5551,
      "Ġseni": 5552,
      "reat": 5553,
      "Ġopst": 5554,
      "Ġoplos": 5555,
      "Ġteveel": 5556,
      "Ġverle": 5557,
      "Ġvoorlop": 5558,
      "Ġondanks": 5559,
      "gez": 5560,
      "geet": 5561,
      "gesp": 5562,
      "Ġjeugd": 5563,
      "Ġaank": 5564,
      "iloft": 5565,
      "unning": 5566,
      "Ġstraf": 5567,
      "ola": 5568,
      "ouds": 5569,
      "amb": 5570,
      "Ġcrit": 5571,
      "tek": 5572,
      "opp": 5573,
      "Ġwort": 5574,
      "ĠMond": 5575,
      "ĠMarkt": 5576,
      "ĠAP": 5577,
      "ĠSan": 5578,
      "Ġreizen": 5579,
      "Ġreacties": 5580,
      "Ġleest": 5581,
      "ants": 5582,
      "ĠVel": 5583,
      "empl": 5584,
      "oods": 5585,
      "ĠNat": 5586,
      "ĠTV": 5587,
      "ĠToe": 5588,
      "ĠGood": 5589,
      "ĠCity": 5590,
      "ĠComp": 5591,
      "spar": 5592,
      "ĠLees": 5593,
      "Ġonderstaande": 5594,
      "Ġspieren": 5595,
      "Ġschoenen": 5596,
      "slaan": 5597,
      "afÃ©": 5598,
      "iphol": 5599,
      "ocenter": 5600,
      "Ġ31": 5601,
      "Ġ32": 5602,
      "Ġ36": 5603,
      "Ġmeet": 5604,
      "Ġgedrukt": 5605,
      "Ġinterieur": 5606,
      "ife": 5607,
      "ervic": 5608,
      "Ġgeholpen": 5609,
      "Ġgoederen": 5610,
      "ubb": 5611,
      "riÃ¨re": 5612,
      "broeken": 5613,
      "Ġbevor": 5614,
      "Ġtrap": 5615,
      "Ġleverancier": 5616,
      "aliseerde": 5617,
      "Ġontwikkelingen": 5618,
      "Ġrechten": 5619,
      "ĠAnd": 5620,
      "Ġaangepast": 5621,
      "Ġorganisaties": 5622,
      "Ġkoning": 5623,
      "geleverd": 5624,
      "undigen": 5625,
      "ĠProvinc": 5626,
      "Ġvisag": 5627,
      "Ġdrukker": 5628,
      "Ġ07": 5629,
      "Ġaanvulling": 5630,
      "Ġbetekenen": 5631,
      "Ġeenvoudige": 5632,
      "Ġtechniek": 5633,
      "ĠElke": 5634,
      "Ġparlement": 5635,
      "Ġflink": 5636,
      "clusie": 5637,
      "ĠGriek": 5638,
      "Ġsocial": 5639,
      "Ġsociale": 5640,
      "Ġbruiloft": 5641,
      "Ġafspraken": 5642,
      "ventie": 5643,
      "leider": 5644,
      "oomla": 5645,
      "Ġformulier": 5646,
      "Ġtraining": 5647,
      "ynocenter": 5648,
      "ĠAuto": 5649,
      "Ġgemiddeld": 5650,
      "Ġinteressante": 5651,
      "wards": 5652,
      "Ġmelk": 5653,
      "ĠofficiÃ«le": 5654,
      "Ġofficieel": 5655,
      "EGON": 5656,
      "zijds": 5657,
      "Ġdiamanten": 5658,
      "Ġupdates": 5659,
      "Ġhonderden": 5660,
      "Ġgewenste": 5661,
      "vlakte": 5662,
      "Ġauteurs": 5663,
      "Ġfruit": 5664,
      "Ġdraagt": 5665,
      "Ġaanrader": 5666,
      "ĠDesign": 5667,
      "ĠItaliaanse": 5668,
      "Ġgeorganiseerd": 5669,
      "Ġenergieleverancier": 5670,
      "Ġoriginele": 5671,
      "Ġgodsdienst": 5672,
      "Ġgewijzigd": 5673,
      "Ġautobanden": 5674,
      "21": 5675,
      "32": 5676,
      "90": 5677,
      "Niet": 5678,
      "TH": 5679,
      "fess": 5680,
      "gor": 5681,
      "hy": 5682,
      "han": 5683,
      "hoe": 5684,
      "kru": 5685,
      "let": 5686,
      "laag": 5687,
      "loc": 5688,
      "lijnen": 5689,
      "ligh": 5690,
      "oken": 5691,
      "press": 5692,
      "wacht": 5693,
      "ycl": 5694,
      "Â®": 5695,
      "ÃŃ": 5696,
      "Ġ+": 5697,
      "erin": 5698,
      "inen": 5699,
      "Ġhangen": 5700,
      "oring": 5701,
      "stijd": 5702,
      "Ġbas": 5703,
      "Ġbag": 5704,
      "Ġbomen": 5705,
      "Ġbox": 5706,
      "ĠeB": 5707,
      "Ġeiwit": 5708,
      "Ġtas": 5709,
      "Ġaft": 5710,
      "atform": 5711,
      "Ġenig": 5712,
      "oorde": 5713,
      "Ġpup": 5714,
      "Ġpente": 5715,
      "reis": 5716,
      "Ġjob": 5717,
      "iggende": 5718,
      "Ġoper": 5719,
      "Ġbehouden": 5720,
      "ars": 5721,
      "Ġverrekening": 5722,
      "rook": 5723,
      "Ġul": 5724,
      "Ġlive": 5725,
      "Ġliter": 5726,
      "Ġonaf": 5727,
      "Ġstre": 5728,
      "Ġstranden": 5729,
      "Ġdaten": 5730,
      "Ġcru": 5731,
      "Ġcamera": 5732,
      "Ġzijne": 5733,
      "oging": 5734,
      "ĠHand": 5735,
      "ĠHem": 5736,
      "schuw": 5737,
      "oploss": 5738,
      "Ġfort": 5739,
      "Ġfris": 5740,
      "Ġfisc": 5741,
      "esp": 5742,
      "rijden": 5743,
      "eelt": 5744,
      "ĠBinnen": 5745,
      "ĠMont": 5746,
      "ĠMain": 5747,
      "ĠAudi": 5748,
      "ĠSo": 5749,
      "ĠSur": 5750,
      "Ġrealiseren": 5751,
      "Ġleert": 5752,
      "ĠII": 5753,
      "ĠIAHD": 5754,
      "ĠIoT": 5755,
      "ĠVerk": 5756,
      "Ġzoon": 5757,
      "tende": 5758,
      "ĠTen": 5759,
      "ĠGold": 5760,
      "ĠCor": 5761,
      "ĠCom": 5762,
      "ĠChe": 5763,
      "Ġpromot": 5764,
      "Ġonderling": 5765,
      "istof": 5766,
      "Ġration": 5767,
      "ĠKies": 5768,
      "kerk": 5769,
      "Ġconflict": 5770,
      "ellig": 5771,
      "edstrij": 5772,
      "Ġgewone": 5773,
      "acte": 5774,
      "iefde": 5775,
      "abs": 5776,
      "abele": 5777,
      "Ġwijzen": 5778,
      "houder": 5779,
      "ocol": 5780,
      "ocaat": 5781,
      "Ġverschijnen": 5782,
      "Ġsneeuw": 5783,
      "Ġgedragen": 5784,
      "formulier": 5785,
      "Ġexempl": 5786,
      "Ġrom": 5787,
      "Ġroman": 5788,
      "Ġtijdje": 5789,
      "merk": 5790,
      "werkingen": 5791,
      "Ġgelden": 5792,
      "Ġ45": 5793,
      "Ġkwaad": 5794,
      "Ġdagelijkse": 5795,
      "Ġbezoeker": 5796,
      "Ġverbinding": 5797,
      "ptie": 5798,
      "Ġtheater": 5799,
      "Ġdrank": 5800,
      "Ġdraait": 5801,
      "Ġbinnenkort": 5802,
      "megen": 5803,
      "udio": 5804,
      "Ġherinn": 5805,
      "adem": 5806,
      "atisering": 5807,
      "Ġlukt": 5808,
      "Ġ2000": 5809,
      "ĠChr": 5810,
      "rib": 5811,
      "Ġcompon": 5812,
      "Ġbevind": 5813,
      "Ġmooiste": 5814,
      "Ġaangezien": 5815,
      "urgers": 5816,
      "Ġkonijnen": 5817,
      "Ġmomenten": 5818,
      "Ġoptreden": 5819,
      "Ġlekkere": 5820,
      "ĠArt": 5821,
      "Ġlichte": 5822,
      "cteurs": 5823,
      "Ġaanvraag": 5824,
      "Ġschooljaar": 5825,
      "Ġmiljoenen": 5826,
      "board": 5827,
      "Ġkeuzes": 5828,
      "Ġduurzame": 5829,
      "Ġingezet": 5830,
      "Ġconsum": 5831,
      "Ġmakkelijker": 5832,
      "Ġwandelen": 5833,
      "Ġvlieg": 5834,
      "Ġvriendelijk": 5835,
      "Ġhogere": 5836,
      "Ġspeler": 5837,
      "Ġverzekerd": 5838,
      "wisseling": 5839,
      "gedrag": 5840,
      "ĠPhen": 5841,
      "schriften": 5842,
      "Ġklinkt": 5843,
      "Ġcampagne": 5844,
      "waardige": 5845,
      "ĠCollection": 5846,
      "Ġindividuele": 5847,
      "Ġbedoeling": 5848,
      "Ġgeslaagd": 5849,
      "Ġgoedkoper": 5850,
      "Ġreligie": 5851,
      "ĠTweede": 5852,
      "ĠIedereen": 5853,
      "spercentage": 5854,
      "Ġnationale": 5855,
      "stijl": 5856,
      "Ġziekte": 5857,
      "ĠSociaal": 5858,
      "Ġvirtuele": 5859,
      "Ġpointcl": 5860,
      "Ġtientallen": 5861,
      "ĠEindhoven": 5862,
      "Ġtelkens": 5863,
      "ĠVeghel": 5864,
      "ĠZeeuws": 5865,
      "Ġboekdrukkunst": 5866,
      "Ã³Ã³r": 5867,
      "Ġverjaardag": 5868,
      "86": 5869,
      "AS": 5870,
      "CO": 5871,
      "Dus": 5872,
      "GB": 5873,
      "Ont": 5874,
      "Ter": 5875,
      "UN": 5876,
      "aj": 5877,
      "basis": 5878,
      "bureau": 5879,
      "daar": 5880,
      "fonds": 5881,
      "gas": 5882,
      "hond": 5883,
      "hone": 5884,
      "ias": 5885,
      "ialen": 5886,
      "kel": 5887,
      "rig": 5888,
      "rid": 5889,
      "su": 5890,
      "uc": 5891,
      "vas": 5892,
      "vatten": 5893,
      "wust": 5894,
      "xd": 5895,
      "ye": 5896,
      "zers": 5897,
      "zaal": 5898,
      "zoeken": 5899,
      "Ġij": 5900,
      "ena": 5901,
      "Ġdacht": 5902,
      "Ġdroom": 5903,
      "Ġduizen": 5904,
      "Ġvi": 5905,
      "Ġven": 5906,
      "Ġvonden": 5907,
      "inkt": 5908,
      "inium": 5909,
      "Ġhap": 5910,
      "aaie": 5911,
      "aadt": 5912,
      "orf": 5913,
      "Ġment": 5914,
      "Ġware": 5915,
      "Ġgraf": 5916,
      "Ġag": 5917,
      "Ġzus": 5918,
      "Ġkijkt": 5919,
      "aarden": 5920,
      "Ġinzetten": 5921,
      "oorte": 5922,
      "onne": 5923,
      "leur": 5924,
      "Ġgec": 5925,
      "Ġgepl": 5926,
      "Ġpet": 5927,
      "Ġpizz": 5928,
      "Ġsele": 5929,
      "Ġjar": 5930,
      "Ġjourn": 5931,
      "Ġtesten": 5932,
      "alve": 5933,
      "arande": 5934,
      "Ġverniet": 5935,
      "Ġverrassen": 5936,
      "route": 5937,
      "Ġvoorstel": 5938,
      "Ġvoorstellen": 5939,
      "Ġvoorkeur": 5940,
      "eep": 5941,
      "eerst": 5942,
      "Ġladen": 5943,
      "Ġonvoldoende": 5944,
      "genoten": 5945,
      "uring": 5946,
      "verde": 5947,
      "verkeer": 5948,
      "Ġstonden": 5949,
      "Ġstation": 5950,
      "amm": 5951,
      "Ġca": 5952,
      "rap": 5953,
      "rain": 5954,
      "ĠHor": 5955,
      "schillen": 5956,
      "Ġeraan": 5957,
      "Ġfir": 5958,
      "Ġfeedback": 5959,
      "âĢĺ": 5960,
      "Ġuitzen": 5961,
      "Ġuitzonder": 5962,
      "ĠMad": 5963,
      "ĠAct": 5964,
      "ĠAEGON": 5965,
      "ĠEd": 5966,
      "ĠEven": 5967,
      "ĠSint": 5968,
      "ĠSiba": 5969,
      "sted": 5970,
      "antel": 5971,
      "ĠWh": 5972,
      "ĠIK": 5973,
      "ĠVaak": 5974,
      "Ġzod": 5975,
      "ĠNin": 5976,
      "apijt": 5977,
      "Ġdoorgaan": 5978,
      "ĠLies": 5979,
      "Ġafval": 5980,
      "Ġschaal": 5981,
      "andering": 5982,
      "Ġrichten": 5983,
      "ĠKn": 5984,
      "ĠKun": 5985,
      "ĠKort": 5986,
      "ĠâĢ¦": 5987,
      "ĠRich": 5988,
      "ĠJa": 5989,
      "heids": 5990,
      "Ġvolautom": 5991,
      "Ġplaf": 5992,
      "ĠIndien": 5993,
      "Ġblik": 5994,
      "Ġgewe": 5995,
      "Ġtoilet": 5996,
      "ĠAlk": 5997,
      "Ġmezelf": 5998,
      "ney": 5999,
      "Ġverscheiden": 6000,
      "uiver": 6001,
      "Ġbeschouw": 6002,
      "Ġbeschermen": 6003,
      "ĠStaten": 6004,
      "Ġmanagement": 6005,
      "gevende": 6006,
      "Ġ500": 6007,
      "Ġvertic": 6008,
      "eemt": 6009,
      "diging": 6010,
      "Ġauthent": 6011,
      "ificatie": 6012,
      "mede": 6013,
      "Ġlaatst": 6014,
      "Ã¯ne": 6015,
      "aving": 6016,
      "Ġherfst": 6017,
      "proces": 6018,
      "Ġverlaten": 6019,
      "Ġverliezen": 6020,
      "Ġachteraf": 6021,
      "Ġfotos": 6022,
      "Ġraken": 6023,
      "Ġrapport": 6024,
      "ther": 6025,
      "Ġstads": 6026,
      "voerder": 6027,
      "Ġbroe": 6028,
      "Ġmenselijk": 6029,
      "Ġvisie": 6030,
      "Ġduidelijke": 6031,
      "Ġmedewerker": 6032,
      "Ġzwemmen": 6033,
      "Ġaanvragen": 6034,
      "Ġmiljard": 6035,
      "Ġtelevisie": 6036,
      "Ġtekort": 6037,
      "ĠHoewel": 6038,
      "Ġgroeps": 6039,
      "Ġvervaard": 6040,
      "ĠZwart": 6041,
      "woningen": 6042,
      "Ġpositie": 6043,
      "Ġflinke": 6044,
      "Ġbeleven": 6045,
      "âĢ¦.": 6046,
      "Ġrustige": 6047,
      "Ġnegen": 6048,
      "Ġstijging": 6049,
      "meth": 6050,
      "Ġmobiel": 6051,
      "Ġkijkje": 6052,
      "Ġrestaurants": 6053,
      "ĠpatiÃ«nt": 6054,
      "iteraard": 6055,
      "Ġsalaris": 6056,
      "Ġslaapkamer": 6057,
      "Ġmaximale": 6058,
      "Ġdroog": 6059,
      "Ġtrots": 6060,
      "verbinding": 6061,
      "ĠHouth": 6062,
      "ĠAutom": 6063,
      "Daarnaast": 6064,
      "Ġinvullen": 6065,
      "Ġrenovatiewerken": 6066,
      "Ã¶r": 6067,
      "Ġbossen": 6068,
      "ĠSamsung": 6069,
      "Ġontbreken": 6070,
      "Ġeconomie": 6071,
      "Ġgeregeld": 6072,
      "Waarom": 6073,
      "echtgenoot": 6074,
      "middellijk": 6075,
      "Ġfilmpjes": 6076,
      "ĠCollege": 6077,
      "Ġtoevoegen": 6078,
      "Ġmethode": 6079,
      "Ġscherp": 6080,
      "ĠChristus": 6081,
      "Ġvariant": 6082,
      "ingtan": 6083,
      "ĠPasen": 6084,
      "Ġslachtoffer": 6085,
      "Vlaanderen": 6086,
      "Ġhuwelijks": 6087,
      "Ġzolang": 6088,
      "Ġaantrekkelijk": 6089,
      "Ġpensioen": 6090,
      "Ġvoertuig": 6091,
      "ĠAjax": 6092,
      "Ġvrijblijvend": 6093,
      "Ġoplossen": 6094,
      "):": 6095,
      "03": 6096,
      "CT": 6097,
      "Holland": 6098,
      "IE": 6099,
      "LA": 6100,
      "Nog": 6101,
      "RS": 6102,
      "WB": 6103,
      "aders": 6104,
      "beerd": 6105,
      "cs": 6106,
      "fil": 6107,
      "liggende": 6108,
      "mo": 6109,
      "mak": 6110,
      "maakt": 6111,
      "maker": 6112,
      "meester": 6113,
      "niveau": 6114,
      "ror": 6115,
      "roep": 6116,
      "richten": 6117,
      "sin": 6118,
      "son": 6119,
      "ton": 6120,
      "tot": 6121,
      "vig": 6122,
      "wand": 6123,
      "wist": 6124,
      "zaakt": 6125,
      "Ġaardig": 6126,
      "Ġident": 6127,
      "erry": 6128,
      "Ġduren": 6129,
      "Ġvie": 6130,
      "Ġveld": 6131,
      "Ġvullen": 6132,
      "ĠvÃ³Ã³r": 6133,
      "ije": 6134,
      "ĠhÃ©": 6135,
      "orpen": 6136,
      "Ġmm": 6137,
      "Ġmatch": 6138,
      "Ġwiel": 6139,
      "Ġwakker": 6140,
      "Ġgit": 6141,
      "Ġgeren": 6142,
      "Ġgaten": 6143,
      "Ġgisteren": 6144,
      "Ġtand": 6145,
      "ato": 6146,
      "atter": 6147,
      "Ġvanzelf": 6148,
      "Ġkook": 6149,
      "Ġkader": 6150,
      "itm": 6151,
      "itatie": 6152,
      "itter": 6153,
      "Ġnag": 6154,
      "Ġnoorden": 6155,
      "Ġinkomen": 6156,
      "Ġintegr": 6157,
      "lecht": 6158,
      "Ġgekeken": 6159,
      "Ġgeiten": 6160,
      "Ġsig": 6161,
      "Ġsier": 6162,
      "Ġsaus": 6163,
      "Ġopstand": 6164,
      "Ġbehoud": 6165,
      "Ġverplaatsen": 6166,
      "chteren": 6167,
      "roffen": 6168,
      "oma": 6169,
      "ĠDorest": 6170,
      "Ġonmiddellijk": 6171,
      "Ġalvast": 6172,
      "geh": 6173,
      "gend": 6174,
      "urn": 6175,
      "urch": 6176,
      "urken": 6177,
      "Ġaandoen": 6178,
      "ility": 6179,
      "Ġstuur": 6180,
      "Ġomw": 6181,
      "Ġomvorm": 6182,
      "ĠHa": 6183,
      "ĠHen": 6184,
      "ĠHar": 6185,
      "ĠHof": 6186,
      "ĠHoog": 6187,
      "schrijven": 6188,
      "opdracht": 6189,
      "Ġfan": 6190,
      "Ġfac": 6191,
      "Ġuitstraling": 6192,
      "ĠMer": 6193,
      "ĠMac": 6194,
      "ĠMult": 6195,
      "ĠAv": 6196,
      "ĠEuro": 6197,
      "ĠSommige": 6198,
      "atieven": 6199,
      "Ġrecl": 6200,
      "Ġwegen": 6201,
      "ĠWim": 6202,
      "ĠVia": 6203,
      "ooien": 6204,
      "ĠTil": 6205,
      "ĠTrouw": 6206,
      "ĠTuner": 6207,
      "ĠGoed": 6208,
      "spraken": 6209,
      "ĠLive": 6210,
      "Ġkansen": 6211,
      "ĠPEA": 6212,
      "elding": 6213,
      "Ġonderweg": 6214,
      "Ġafsluiten": 6215,
      "Ġmodu": 6216,
      "Ġschijn": 6217,
      "Ġschou": 6218,
      "Ġroe": 6219,
      "uters": 6220,
      "ĠRec": 6221,
      "indust": 6222,
      "ums": 6223,
      "Ġvolwassen": 6224,
      "ĠFe": 6225,
      "Ġblokk": 6226,
      "Ġbestel": 6227,
      "Ġgemak": 6228,
      "Ġhierover": 6229,
      "houders": 6230,
      "Ġcomment": 6231,
      "gevonden": 6232,
      "Ġgebruiker": 6233,
      "Ġ300": 6234,
      "Ġgenoemde": 6235,
      "ester": 6236,
      "Ġbeschad": 6237,
      "volen": 6238,
      "ffer": 6239,
      "Ġmanieren": 6240,
      "Ġarche": 6241,
      "Ġpri": 6242,
      "Ġtheorie": 6243,
      "Ġdraaien": 6244,
      "eltje": 6245,
      "Ġlangere": 6246,
      "Ġlangzaam": 6247,
      "Ġgeleid": 6248,
      "Ġvlag": 6249,
      "Ġacties": 6250,
      "Ġverhuur": 6251,
      "Ġprobeer": 6252,
      "Ġprobeert": 6253,
      "intig": 6254,
      "Ġ65": 6255,
      "Ġappellante": 6256,
      "Ġparts": 6257,
      "Ġ196": 6258,
      "overen": 6259,
      "Ġ2002": 6260,
      "Ġ2004": 6261,
      "Ġdirectie": 6262,
      "gemeester": 6263,
      "Ġtraject": 6264,
      "Ġoudere": 6265,
      "Ġleveranciers": 6266,
      "Ġwereldwijd": 6267,
      "vloeden": 6268,
      "Ġgespeeld": 6269,
      "Ġregion": 6270,
      "middag": 6271,
      "ĠSchiphol": 6272,
      "Ġslechte": 6273,
      "!!!!": 6274,
      "Ġeindelijk": 6275,
      "Ġeindeloos": 6276,
      "Ġopgezet": 6277,
      "Ġimport": 6278,
      "Ġafgesproken": 6279,
      "Ġshutt": 6280,
      "Ġstukje": 6281,
      "itesurf": 6282,
      "weging": 6283,
      "Ġveranderd": 6284,
      "daagse": 6285,
      "Ġadvocaat": 6286,
      "Ġheet": 6287,
      "Ġbehandeld": 6288,
      "optim": 6289,
      "Ġparapsych": 6290,
      "Ġtrekt": 6291,
      "Ġconsult": 6292,
      "Ġaanwezigheid": 6293,
      "metingen": 6294,
      "Vanaf": 6295,
      "ollicit": 6296,
      "Ġrekenen": 6297,
      "gewoon": 6298,
      "Ġrecente": 6299,
      "kantoor": 6300,
      "Ġbleef": 6301,
      "Ġgebouwen": 6302,
      "Ġbespreken": 6303,
      "Ġnieuwsbrief": 6304,
      "Ġpapegaaienkooi": 6305,
      "ĠPlus": 6306,
      "ĠClick": 6307,
      "uliere": 6308,
      "athie": 6309,
      "ĠFrans": 6310,
      "Ġpolitieke": 6311,
      "Ġvoetbal": 6312,
      "ĠWaarom": 6313,
      "Ġnauwkeur": 6314,
      "Ġafbeeldingen": 6315,
      "Ġfeiten": 6316,
      "vrijheid": 6317,
      "Ġverantwoordelijkheid": 6318,
      "rete": 6319,
      "Ġgegeten": 6320,
      "vriendelijk": 6321,
      "affen": 6322,
      "Ġtrends": 6323,
      "regeling": 6324,
      "Ġeconomische": 6325,
      "Ġmodellen": 6326,
      "Ġtoont": 6327,
      "Ġuitvoering": 6328,
      "Ġdosering": 6329,
      "Ġaanbieder": 6330,
      "Ġdigitale": 6331,
      "Ġfunctioneren": 6332,
      "Ġinciden": 6333,
      "Ġpeper": 6334,
      "Ġinvestering": 6335,
      "ĠApple": 6336,
      "Ġoffertes": 6337,
      "apparaten": 6338,
      "Ġtraditionele": 6339,
      "pleegd": 6340,
      "Helchteren": 6341,
      "Ġnegatieve": 6342,
      "Ġvoormalige": 6343,
      "ĠcarriÃ¨re": 6344,
      "Ġzorgverleners": 6345,
      "Ġpubliceren": 6346,
      "Ġinvesteren": 6347,
      "Ġventil": 6348,
      "ĠPaul": 6349,
      "rÃ¨me": 6350,
      "Ġmeisjes": 6351,
      "bliotheek": 6352,
      "ĠNijmegen": 6353,
      "Ġverdieping": 6354,
      "ĠMondicon": 6355,
      "ĠVeluwe": 6356,
      "ĠeBay": 6357,
      "ĠHouthalen": 6358,
      "ĠDorestad": 6359,
      "industrie": 6360,
      "22": 6361,
      "54": 6362,
      "77": 6363,
      "EF": 6364,
      "EX": 6365,
      "Geen": 6366,
      "Heer": 6367,
      "Ken": 6368,
      "LO": 6369,
      "Per": 6370,
      "Samen": 6371,
      "Sinds": 6372,
      "Ten": 6373,
      "Tip": 6374,
      "Uw": 6375,
      "You": 6376,
      "Zie": 6377,
      "cin": 6378,
      "dur": 6379,
      "foon": 6380,
      "giÃ«": 6381,
      "ket": 6382,
      "loze": 6383,
      "mag": 6384,
      "nd": 6385,
      "ni": 6386,
      "pakt": 6387,
      "riek": 6388,
      "tran": 6389,
      "vd": 6390,
      "vingen": 6391,
      "vels": 6392,
      "vraag": 6393,
      "warm": 6394,
      "waardig": 6395,
      "zin": 6396,
      "Ã¤": 6397,
      "âĦ": 6398,
      "Ġ$": 6399,
      "Ġ)": 6400,
      "ense": 6401,
      "enario": 6402,
      "Ġduurt": 6403,
      "any": 6404,
      "anje": 6405,
      "Ġvru": 6406,
      "Ġvogel": 6407,
      "elgr": 6408,
      "ijft": 6409,
      "Ġmas": 6410,
      "Ġmake": 6411,
      "Ġmix": 6412,
      "stels": 6413,
      "stoot": 6414,
      "Ġbot": 6415,
      "Ġbaas": 6416,
      "Ġgood": 6417,
      "Ġgouden": 6418,
      "iest": 6419,
      "iezingen": 6420,
      "Ġton": 6421,
      "Ġtip": 6422,
      "Ġtaart": 6423,
      "Ġtaken": 6424,
      "Ġeng": 6425,
      "Ġkanten": 6426,
      "Ġkerken": 6427,
      "Ġkaarten": 6428,
      "itut": 6429,
      "Ġno": 6430,
      "Ġnr": 6431,
      "Ġnut": 6432,
      "Ġinbe": 6433,
      "Ġinrichting": 6434,
      "leidingen": 6435,
      "Ġgeur": 6436,
      "Ġgecom": 6437,
      "Ġgecon": 6438,
      "desk": 6439,
      "Ġsj": 6440,
      "Ġsom": 6441,
      "Ġsur": 6442,
      "Ġsites": 6443,
      "Ġsessie": 6444,
      "dens": 6445,
      "Ġopn": 6446,
      "ald": 6447,
      "Ġbewee": 6448,
      "Ġvoorbeelden": 6449,
      "Ġvoorzitter": 6450,
      "ĠDigit": 6451,
      "Ġlisten": 6452,
      "Ġlager": 6453,
      "Ġlunch": 6454,
      "Ġmeten": 6455,
      "genoemde": 6456,
      "verandering": 6457,
      "Ġaanleg": 6458,
      "Ġaanleiding": 6459,
      "Ġsteken": 6460,
      "Ġstreven": 6461,
      "olit": 6462,
      "anda": 6463,
      "andid": 6464,
      "Ġcoc": 6465,
      "Ġcertific": 6466,
      "Ġcalorie": 6467,
      "Ġcobalamine": 6468,
      "Ġomhoog": 6469,
      "raz": 6470,
      "ĠHotels": 6471,
      "Ġdieet": 6472,
      "oper": 6473,
      "Ġfase": 6474,
      "âĢĵ": 6475,
      "Ġuitgang": 6476,
      "ĠBas": 6477,
      "ĠMaast": 6478,
      "ĠAC": 6479,
      "ĠSj": 6480,
      "ĠSoms": 6481,
      "Ġbijbeh": 6482,
      "steen": 6483,
      "iere": 6484,
      "Ġovergang": 6485,
      "ĠIJ": 6486,
      "imum": 6487,
      "ĠVal": 6488,
      "ĠTren": 6489,
      "ĠGroningen": 6490,
      "ĠOoster": 6491,
      "ĠCV": 6492,
      "Ġwaarheid": 6493,
      "Ġprocedure": 6494,
      "ĠLeu": 6495,
      "sector": 6496,
      "ĠPeter": 6497,
      "Ġgebrek": 6498,
      "Ġafkomst": 6499,
      "Ġspons": 6500,
      "Ġsporten": 6501,
      "Ġschitt": 6502,
      "ista": 6503,
      "istisch": 6504,
      "Ġmeerder": 6505,
      "ĠZig": 6506,
      "Ġraads": 6507,
      "Ġweliswaar": 6508,
      "ĠKT": 6509,
      "ĠKen": 6510,
      "ĠKan": 6511,
      "ĠâĢ¢": 6512,
      "aster": 6513,
      "ĠRS": 6514,
      "ĠRad": 6515,
      "best": 6516,
      "bescherm": 6517,
      "ĠJu": 6518,
      "ĠJong": 6519,
      "Ġontworpen": 6520,
      "eenstra": 6521,
      "Ġgrief": 6522,
      "Ġplots": 6523,
      "elliet": 6524,
      "Ġklas": 6525,
      "Ġklopt": 6526,
      "ipspl": 6527,
      "Ġbedragen": 6528,
      "Ġtoel": 6529,
      "Ġtool": 6530,
      "Ġnieuwbouw": 6531,
      "Ġwijs": 6532,
      "gevoel": 6533,
      "activ": 6534,
      "Ġweergegeven": 6535,
      "Ġdial": 6536,
      "Ġtijdelijk": 6537,
      "merken": 6538,
      "Ġbeschreven": 6539,
      "Ġperspect": 6540,
      "Ġinterview": 6541,
      "Ġbezit": 6542,
      "ranche": 6543,
      "Ġverband": 6544,
      "Ġverbrand": 6545,
      "orende": 6546,
      "Ġthey": 6547,
      "Ġdrinken": 6548,
      "Ġzorgvuldig": 6549,
      "ronische": 6550,
      "Ġminister": 6551,
      "aller": 6552,
      "oodse": 6553,
      "Ġligging": 6554,
      "Ġactuele": 6555,
      "Ġgeschikte": 6556,
      "Ġchrist": 6557,
      "Ġverlies": 6558,
      "Ġverwarm": 6559,
      "ĠVooral": 6560,
      "efeliciteerd": 6561,
      "ĠYork": 6562,
      "Ġstraten": 6563,
      "Ġlevering": 6564,
      "eurs": 6565,
      "Ġmissen": 6566,
      "ĠVanuit": 6567,
      "vloer": 6568,
      "Ġsystemen": 6569,
      "ĠVervolgens": 6570,
      "Ġverminder": 6571,
      "lossy": 6572,
      "ENZ": 6573,
      "Ġfilos": 6574,
      "Ġberichten": 6575,
      "ĠZeker": 6576,
      "Ġaccept": 6577,
      "Ġvisum": 6578,
      "handeling": 6579,
      "Ġzwembroeken": 6580,
      "Ġshop": 6581,
      "ĠDoordat": 6582,
      "Ġbehandelen": 6583,
      "Ġkilo": 6584,
      "inning": 6585,
      "uchten": 6586,
      "Ġoorzaak": 6587,
      "Ġbeperken": 6588,
      "Ġbeleving": 6589,
      "Ġtrans": 6590,
      "minste": 6591,
      "Ġgebeurde": 6592,
      "Ġdienstverlen": 6593,
      "Verder": 6594,
      "Ġmotiv": 6595,
      "Ġwoonkamer": 6596,
      "keuring": 6597,
      "uilen": 6598,
      "Ġbesparen": 6599,
      "ĠOnderwijs": 6600,
      "Ġhaven": 6601,
      "Ġhaha": 6602,
      "Ġbalk": 6603,
      "Ġsecurity": 6604,
      "Ġcommunic": 6605,
      "ĠVlad": 6606,
      "ĠVlaamse": 6607,
      "rika": 6608,
      "Ġcomfortabele": 6609,
      "Ġaangebracht": 6610,
      "Ġhoriz": 6611,
      "Ġburgemeester": 6612,
      "langs": 6613,
      "Ġdubbele": 6614,
      "Ġgegarande": 6615,
      "ĠCentrum": 6616,
      "Ġkoers": 6617,
      "Ġvrede": 6618,
      "Ġverzend": 6619,
      "Ġverzenden": 6620,
      "Ġanti": 6621,
      "ĠMaison": 6622,
      "codes": 6623,
      "iderz": 6624,
      "Ġinstructeur": 6625,
      "Ġfactoren": 6626,
      "Ġwedstrijden": 6627,
      "Ġwijzigen": 6628,
      "Ġzonneb": 6629,
      "Ġdigitaal": 6630,
      "Ġfabrik": 6631,
      "Ġplatform": 6632,
      "Ġhonderd": 6633,
      "Ġgeestelijke": 6634,
      "Ġgewenst": 6635,
      "Ġverschijnt": 6636,
      "Ġhighligh": 6637,
      "Ġletterlijk": 6638,
      "Ġalternatief": 6639,
      "oires": 6640,
      "Ġgeheugen": 6641,
      "Ġtoeristen": 6642,
      "ferentie": 6643,
      "trent": 6644,
      "Ġoorspronkelijke": 6645,
      "techniek": 6646,
      "Ġblauwe": 6647,
      "Ġstrategie": 6648,
      "Ġimpact": 6649,
      "Ġstevige": 6650,
      "Ġaspecten": 6651,
      "Ġafdeling": 6652,
      "Ġrelev": 6653,
      "ĠVerenigde": 6654,
      "Ġgrenzen": 6655,
      "Ġexterne": 6656,
      "herapie": 6657,
      "ĠNederlanders": 6658,
      "Ġweigering": 6659,
      "Ġzogenaamde": 6660,
      "Ġtoernooi": 6661,
      "Ġgeregistreerd": 6662,
      "oeften": 6663,
      "Ġvrijwilligers": 6664,
      "Ġsenioren": 6665,
      "ĠSurin": 6666,
      "Ġverscheidenheid": 6667,
      "ĠAutomatisering": 6668,
      "âĦ¢": 6669,
      "ĠMaastricht": 6670,
      "Ġhighlighted": 6671,
      "29": 6672,
      "33": 6673,
      "57": 6674,
      "EI": 6675,
      "EÃ©n": 6676,
      "FI": 6677,
      "Gefeliciteerd": 6678,
      "IM": 6679,
      "Ieder": 6680,
      "Lees": 6681,
      "Of": 6682,
      "Pers": 6683,
      "TC": 6684,
      "Un": 6685,
      "beer": 6686,
      "bra": 6687,
      "bru": 6688,
      "bak": 6689,
      "cor": 6690,
      "cess": 6691,
      "dijk": 6692,
      "fun": 6693,
      "fect": 6694,
      "gh": 6695,
      "gge": 6696,
      "ibel": 6697,
      "kapp": 6698,
      "oice": 6699,
      "polis": 6700,
      "ric": 6701,
      "reren": 6702,
      "ries": 6703,
      "rich": 6704,
      "ters": 6705,
      "ukt": 6706,
      "vaard": 6707,
      "wort": 6708,
      "ziet": 6709,
      "ensen": 6710,
      "erh": 6711,
      "ĠdÃ©": 6712,
      "Ġvoeten": 6713,
      "inten": 6714,
      "informatie": 6715,
      "Ġham": 6716,
      "Ġhant": 6717,
      "Ġmaten": 6718,
      "Ġmicro": 6719,
      "Ġbier": 6720,
      "ieerde": 6721,
      "Ġeur": 6722,
      "ating": 6723,
      "Ġkust": 6724,
      "Ġnutt": 6725,
      "Ġingesteld": 6726,
      "onk": 6727,
      "onisch": 6728,
      "Ġhetgeen": 6729,
      "Ġpod": 6730,
      "Ġped": 6731,
      "Ġpoeder": 6732,
      "ded": 6733,
      "Ġsoep": 6734,
      "denk": 6735,
      "Ġjacht": 6736,
      "Ġjust": 6737,
      "oeven": 6738,
      "alingen": 6739,
      "Ġisol": 6740,
      "Ġbewezen": 6741,
      "Ġvervang": 6742,
      "Ġverdeeld": 6743,
      "rog": 6744,
      "Ġupl": 6745,
      "Ġvoorjaar": 6746,
      "ompen": 6747,
      "ĠDoe": 6748,
      "ĠDames": 6749,
      "kenning": 6750,
      "Ġlab": 6751,
      "Ġlaad": 6752,
      "Ġlay": 6753,
      "Ġleng": 6754,
      "Ġaansch": 6755,
      "Ġaangem": 6756,
      "ild": 6757,
      "ilen": 6758,
      "Ġstel": 6759,
      "Ġstoel": 6760,
      "Ġstaats": 6761,
      "Ġstrom": 6762,
      "older": 6763,
      "Ġomgek": 6764,
      "venster": 6765,
      "ĠHu": 6766,
      "ĠHonden": 6767,
      "Ġerin": 6768,
      "opelijk": 6769,
      "ason": 6770,
      "Ġfaciliteiten": 6771,
      "Ġfouten": 6772,
      "Ġuitsluitend": 6773,
      "ĠBT": 6774,
      "ĠBer": 6775,
      "ĠBele": 6776,
      "ĠMil": 6777,
      "ĠMaak": 6778,
      "ĠMeest": 6779,
      "ĠAN": 6780,
      "ĠAg": 6781,
      "ĠAt": 6782,
      "ĠAz": 6783,
      "ĠEchter": 6784,
      "ĠEUR": 6785,
      "ĠSun": 6786,
      "usland": 6787,
      "ience": 6788,
      "Ġleeg": 6789,
      "Ġlegt": 6790,
      "Ġless": 6791,
      "Ġoverl": 6792,
      "Ġweder": 6793,
      "ĠWell": 6794,
      "ulk": 6795,
      "ulen": 6796,
      "ĠVit": 6797,
      "ĠVerg": 6798,
      "ĠVoeg": 6799,
      "Ġalsnog": 6800,
      "advies": 6801,
      "ĠTom": 6802,
      "ĠGebruik": 6803,
      "ĠOff": 6804,
      "ĠCD": 6805,
      "uurs": 6806,
      "apac": 6807,
      "ĠLok": 6808,
      "ĠLonden": 6809,
      "ĠLeeuw": 6810,
      "ĠPD": 6811,
      "ĠPo": 6812,
      "Ġonderbouw": 6813,
      "Ġgeboorte": 6814,
      "Ġafwijk": 6815,
      "Ġspoor": 6816,
      "Ġspannen": 6817,
      "Ġspanning": 6818,
      "Ġspringen": 6819,
      "anderen": 6820,
      "ĠZeeland": 6821,
      "Ġring": 6822,
      "ĠKru": 6823,
      "ĠKieu": 6824,
      "ormd": 6825,
      "ĠRoo": 6826,
      "ĠRest": 6827,
      "ĠRuss": 6828,
      "ĠRusland": 6829,
      "bev": 6830,
      "besten": 6831,
      "Ġvolum": 6832,
      "Ġplant": 6833,
      "iche": 6834,
      "Ġconcept": 6835,
      "Ġklus": 6836,
      "platform": 6837,
      "Ġgewonnen": 6838,
      "voort": 6839,
      "voorzitter": 6840,
      "Ġbedraagt": 6841,
      "eco": 6842,
      "ideo": 6843,
      "Ġ37": 6844,
      "Ġbelast": 6845,
      "Ġperform": 6846,
      "blok": 6847,
      "aamd": 6848,
      "Ġsnack": 6849,
      "Ġrook": 6850,
      "merkt": 6851,
      "Ġbeschrijving": 6852,
      "schaps": 6853,
      "Ġ413": 6854,
      "Ġkwets": 6855,
      "ffect": 6856,
      "aadloos": 6857,
      "Ġverkeer": 6858,
      "assa": 6859,
      "Ġautor": 6860,
      "ifi": 6861,
      "Ġminimaal": 6862,
      "erveerd": 6863,
      "akketten": 6864,
      "Ġzware": 6865,
      "Ġterugbet": 6866,
      "ochtend": 6867,
      "odigd": 6868,
      "Ġhandige": 6869,
      "cedes": 6870,
      "Ġchamp": 6871,
      "Ġverloopt": 6872,
      "Ġmoesten": 6873,
      "Ġopening": 6874,
      "netwerk": 6875,
      "Ġstralen": 6876,
      "belasting": 6877,
      "Ġcompet": 6878,
      "2019": 6879,
      "Ġmaakten": 6880,
      "Ġ75": 6881,
      "gestuurd": 6882,
      "ĠAnders": 6883,
      "ĠAndere": 6884,
      "Ġvolgend": 6885,
      "Ġderden": 6886,
      "ĠHierbij": 6887,
      "count": 6888,
      "print": 6889,
      "Ġtoename": 6890,
      "Ġpaarden": 6891,
      "Ġhoofdstad": 6892,
      "entieel": 6893,
      "Ġeffecten": 6894,
      "mailberichten": 6895,
      "Ġbehandelingen": 6896,
      "Ġtechnologie": 6897,
      "ript": 6898,
      "Ġtransf": 6899,
      "Ġwenst": 6900,
      "Ġculturele": 6901,
      "Ġavont": 6902,
      "Ġkorter": 6903,
      "auty": 6904,
      "Ġgepublic": 6905,
      "Ġeeuwen": 6906,
      "rechten": 6907,
      "Ġafspeel": 6908,
      "Ġaparte": 6909,
      "Ġnormale": 6910,
      "Ġwoont": 6911,
      "ĠAmerika": 6912,
      "Ġstemmen": 6913,
      "Ġvliegen": 6914,
      "Ġpapier": 6915,
      "ĠWelke": 6916,
      "Ġgarage": 6917,
      "Ġgaranderen": 6918,
      "Ġverwachting": 6919,
      "Ġfilms": 6920,
      "Ġcomfortabel": 6921,
      "ĠInternation": 6922,
      "Ġrijke": 6923,
      "organisatie": 6924,
      "Ġkranten": 6925,
      "ĠCentraal": 6926,
      "Ġgedachte": 6927,
      "Ġvreem": 6928,
      "Ġpassende": 6929,
      "Ġvaria": 6930,
      "Ġtoepassing": 6931,
      "Ġbreedte": 6932,
      "ĠDeli": 6933,
      "brengen": 6934,
      "Ġschrijver": 6935,
      "ĠiPhone": 6936,
      "Ġambitie": 6937,
      "Ġseksuele": 6938,
      "design": 6939,
      "Ġveroorzaakt": 6940,
      "ĠMedia": 6941,
      "Ġcanvas": 6942,
      "Ġdiamant": 6943,
      "hebbers": 6944,
      "rabant": 6945,
      "ĠMensen": 6946,
      "ĠKlein": 6947,
      "Ġkoelkast": 6948,
      "Ġindustrie": 6949,
      "ĠindustriÃ«le": 6950,
      "Ġslachtoffers": 6951,
      "Ġontmoeting": 6952,
      "Ġstatus": 6953,
      "Ġenthousias": 6954,
      "Ġenthousiast": 6955,
      "Ġtomaten": 6956,
      "Ġverpakk": 6957,
      "Ġdonkere": 6958,
      "Ġvoordelig": 6959,
      "ĠAccount": 6960,
      "Ġjaarlijks": 6961,
      "Ġaanvullende": 6962,
      "Ġfantastische": 6963,
      "Ġcontainer": 6964,
      "ustral": 6965,
      "Ġsalafisten": 6966,
      "Ġnoemt": 6967,
      "Ġopgelost": 6968,
      "ĠWereld": 6969,
      "Ġsymptomen": 6970,
      "Ġhersenen": 6971,
      "Ġnergens": 6972,
      "ĠingrediÃ«nten": 6973,
      "Ġboerderij": 6974,
      "Ġpointclouds": 6975,
      "Ġselectie": 6976,
      "ĠNinh": 6977,
      "Ġplafond": 6978,
      "ĠTilburg": 6979,
      "Ġroept": 6980,
      "Kenwood": 6981,
      "Ġinbegrepen": 6982,
      "Ġdialoog": 6983,
      "Ġgegarandeerd": 6984,
      "apaciteit": 6985,
      "04": 6986,
      "28": 6987,
      "AP": 6988,
      "AAR": 6989,
      "NL": 6990,
      "OM": 6991,
      "SA": 6992,
      "Sh": 6993,
      "Sn": 6994,
      "TE": 6995,
      "Tot": 6996,
      "Tran": 6997,
      "VER": 6998,
      "bu": 6999,
      "bro": 7000,
      "bron": 7001,
      "book": 7002,
      "cer": 7003,
      "cast": 7004,
      "duur": 7005,
      "foort": 7006,
      "foil": 7007,
      "foto": 7008,
      "gar": 7009,
      "hoor": 7010,
      "kamp": 7011,
      "laat": 7012,
      "lange": 7013,
      "norm": 7014,
      "oÃ¯": 7015,
      "pakket": 7016,
      "risten": 7017,
      "sers": 7018,
      "selen": 7019,
      "sole": 7020,
      "uijk": 7021,
      "vo": 7022,
      "waren": 7023,
      "xit": 7024,
      "ypen": 7025,
      "za": 7026,
      "Â²": 7027,
      "Ãª": 7028,
      "eriderz": 7029,
      "Ġdert": 7030,
      "Ġdiner": 7031,
      "Ġvaat": 7032,
      "Ġveg": 7033,
      "Ġvaren": 7034,
      "Ġviel": 7035,
      "eth": 7036,
      "Ġoost": 7037,
      "Ġdek": 7038,
      "Ġmer": 7039,
      "stu": 7040,
      "stroom": 7041,
      "Ġwagen": 7042,
      "Ġboord": 7043,
      "Ġbatter": 7044,
      "Ġgrij": 7045,
      "Ġgame": 7046,
      "Ġglossy": 7047,
      "iem": 7048,
      "Ġest": 7049,
      "Ġtol": 7050,
      "Ġtaak": 7051,
      "aturen": 7052,
      "Ġziel": 7053,
      "Ġkoek": 7054,
      "itaire": 7055,
      "Ġeene": 7056,
      "Ġinschrijving": 7057,
      "ony": 7058,
      "Ġpen": 7059,
      "Ġpil": 7060,
      "Ġpelgr": 7061,
      "rekt": 7062,
      "rechter": 7063,
      "Ġjurk": 7064,
      "igings": 7065,
      "Ġopent": 7066,
      "Ġopgericht": 7067,
      "Ġopbreng": 7068,
      "Ġbem": 7069,
      "Ġbes": 7070,
      "Ġbese": 7071,
      "Ġverre": 7072,
      "Ġverstandig": 7073,
      "rop": 7074,
      "Ġvoorke": 7075,
      "ĠDag": 7076,
      "ĠDoel": 7077,
      "eesten": 7078,
      "Ġlin": 7079,
      "Ġline": 7080,
      "Ġlip": 7081,
      "gevers": 7082,
      "genen": 7083,
      "verk": 7084,
      "Ġaansluit": 7085,
      "Ġaansluiting": 7086,
      "Ġstar": 7087,
      "Ġstopt": 7088,
      "amische": 7089,
      "ammen": 7090,
      "Ġcol": 7091,
      "teit": 7092,
      "teur": 7093,
      "oke": 7094,
      "Ġomzet": 7095,
      "idde": 7096,
      "raft": 7097,
      "ogels": 7098,
      "ograaf": 7099,
      "ĠHuis": 7100,
      "zed": 7101,
      "Ġerf": 7102,
      "Ġeruit": 7103,
      "opper": 7104,
      "Ġfrag": 7105,
      "rijding": 7106,
      "ĠBent": 7107,
      "ĠBus": 7108,
      "ĠBeg": 7109,
      "ĠMocht": 7110,
      "Ġofwel": 7111,
      "steun": 7112,
      "Ġrem": 7113,
      "Ġreeks": 7114,
      "Ġoverd": 7115,
      "ĠWeer": 7116,
      "ĠWind": 7117,
      "ulden": 7118,
      "imm": 7119,
      "ĠVK": 7120,
      "ĠVista": 7121,
      "ema": 7122,
      "emand": 7123,
      "icaties": 7124,
      "ĠNI": 7125,
      "adel": 7126,
      "ĠTop": 7127,
      "ĠTele": 7128,
      "ĠOog": 7129,
      "ĠCre": 7130,
      "ĠCal": 7131,
      "Ġwaarborg": 7132,
      "Ġdoordat": 7133,
      "ĠPale": 7134,
      "Ġondernemen": 7135,
      "Ġgebieden": 7136,
      "Ġgebleven": 7137,
      "Ġspoed": 7138,
      "Ġspreekt": 7139,
      "ĠZod": 7140,
      "Ġrand": 7141,
      "tert": 7142,
      "Ġwelzijn": 7143,
      "kest": 7144,
      "ĠKer": 7145,
      "ĠKinder": 7146,
      "utch": 7147,
      "utten": 7148,
      "ĠRob": 7149,
      "beschrijving": 7150,
      "ĠJelt": 7151,
      "ĠJord": 7152,
      "Ġonth": 7153,
      "oonstelling": 7154,
      "ĠFeenstra": 7155,
      "Ġdaarop": 7156,
      "Ġcondens": 7157,
      "datum": 7158,
      "Ġbesteld": 7159,
      "Ġbestond": 7160,
      "Ġgemaakte": 7161,
      "orgd": 7162,
      "ĠAlles": 7163,
      "Ġnader": 7164,
      "Ġ38": 7165,
      "Ġmech": 7166,
      "Ġbegins": 7167,
      "Ġwerkte": 7168,
      "resent": 7169,
      "result": 7170,
      "Ġzout": 7171,
      "gelo": 7172,
      "inkrijk": 7173,
      "Ġslapen": 7174,
      "Ġroom": 7175,
      "Ġrood": 7176,
      "estie": 7177,
      "groepen": 7178,
      "graaf": 7179,
      "Ġcontinu": 7180,
      "Ġ400": 7181,
      "Ġmanusc": 7182,
      "Ġbehalve": 7183,
      "Ġbehoeften": 7184,
      "Ġarg": 7185,
      "range": 7186,
      "ranje": 7187,
      "ĠDaarvoor": 7188,
      "ĠDaarmee": 7189,
      "Ġnatuurram": 7190,
      "Ġzorgverzeker": 7191,
      "Ġminen": 7192,
      "akkelijke": 7193,
      "Ġgehuurde": 7194,
      "Ġgelegd": 7195,
      "Ġactu": 7196,
      "Ġsnelheid": 7197,
      "Ġverhogen": 7198,
      "euze": 7199,
      "Ġ600": 7200,
      "ĠÃ©cht": 7201,
      "Ġwetenschappelijke": 7202,
      "Ġbewaren": 7203,
      "Ġbewaard": 7204,
      "ubsid": 7205,
      "auze": 7206,
      "Ġhemel": 7207,
      "iller": 7208,
      "ĠYingtan": 7209,
      "arktable": 7210,
      "ĠChar": 7211,
      "Ġhoogste": 7212,
      "Ġzekerheid": 7213,
      "Ġvastgesteld": 7214,
      "Ġbevinden": 7215,
      "aya": 7216,
      "systemen": 7217,
      "Ġaangewezen": 7218,
      "irect": 7219,
      "shirt": 7220,
      "Ġorganiseert": 7221,
      "ĠSpanje": 7222,
      "Ġelementen": 7223,
      "leservice": 7224,
      "Ġleukste": 7225,
      "Ġopties": 7226,
      "undbar": 7227,
      "Ġbeschikbare": 7228,
      "Ġbergen": 7229,
      "oelens": 7230,
      "Ġmiddels": 7231,
      "ĠArth": 7232,
      "Ġdrukken": 7233,
      "matige": 7234,
      "haus": 7235,
      "Ġzomaar": 7236,
      "Ġshirt": 7237,
      "ĠGew": 7238,
      "ĠGez": 7239,
      "Ġknow": 7240,
      "Ġcombineren": 7241,
      "etting": 7242,
      "aza": 7243,
      "Ġteksten": 7244,
      "Ġblijken": 7245,
      "Ġblijkbaar": 7246,
      "risomie": 7247,
      "Ġfuncties": 7248,
      "Ġrollen": 7249,
      "wongen": 7250,
      "Ġoordeel": 7251,
      "ĠWilt": 7252,
      "ĠTevens": 7253,
      "ĠGratis": 7254,
      "Ġactiviteit": 7255,
      "Ġkruis": 7256,
      "Ġondersteunt": 7257,
      "Ġversturen": 7258,
      "Ġverstopt": 7259,
      "gewen": 7260,
      "Ġconcrete": 7261,
      "Ġprofession": 7262,
      "Ġwandel": 7263,
      "Ġbrow": 7264,
      "Ġtoekomstige": 7265,
      "ĠIsra": 7266,
      "ĠNieuwpoort": 7267,
      "Ġproceskosten": 7268,
      "Ġmobile": 7269,
      "groen": 7270,
      "Ġinstalleren": 7271,
      "lopende": 7272,
      "Ġslaapkamers": 7273,
      "Ġbewustzijn": 7274,
      "contract": 7275,
      "Ġaardapp": 7276,
      "Ġolijf": 7277,
      "Ġdromen": 7278,
      "ĠBrand": 7279,
      "Ġverzamelen": 7280,
      "kleur": 7281,
      "Ġparkeerplaatsen": 7282,
      "Ġstijlvolle": 7283,
      "Ġpassag": 7284,
      "Ġverenigingen": 7285,
      "ĠvariÃ«ren": 7286,
      "Ġfraaie": 7287,
      "Ġontbreekt": 7288,
      "Ġinstrument": 7289,
      "Ġspecifiek": 7290,
      "Ġdikke": 7291,
      "Ġseksueel": 7292,
      "ĠAntwerpen": 7293,
      "IPP": 7294,
      "Ġsymb": 7295,
      "Ġdocument": 7296,
      "Ġtwintig": 7297,
      "Ġgeprobeerd": 7298,
      "izzard": 7299,
      "Ġmakelaars": 7300,
      "Ġovertuigen": 7301,
      "ĠessentiÃ«le": 7302,
      "Ġauteur": 7303,
      "Ġanalys": 7304,
      "Ġofferte": 7305,
      "Ġreviews": 7306,
      "Ġkunstenaars": 7307,
      "Ġconcurrentie": 7308,
      "gebouwd": 7309,
      "Ġverhoogt": 7310,
      "ĠefficiÃ«nt": 7311,
      "groeid": 7312,
      "Ġarchitect": 7313,
      "Ġmoderniteit": 7314,
      "rimin": 7315,
      "Ġtwijfel": 7316,
      "Ġdatingsite": 7317,
      "ĠBuena": 7318,
      "Ġwesterse": 7319,
      "Ġsteentapijt": 7320,
      "ĠGeorgiÃ«": 7321,
      "ĠEngeland": 7322,
      "Ġverbetering": 7323,
      "Ġvloeistof": 7324,
      "Ġbereikbaar": 7325,
      "duidelijk": 7326,
      "Ġprettig": 7327,
      "Ġverdienen": 7328,
      "Ġversterken": 7329,
      "ĠRedactie": 7330,
      "Ġopzichte": 7331,
      "Ġreizigers": 7332,
      "ĠcommerciÃ«le": 7333,
      "Ġverwarmen": 7334,
      "Ġboete": 7335,
      "Ġsuggest": 7336,
      "Ġaccessoires": 7337,
      "ĠUniversiteit": 7338,
      "tekst": 7339,
      "Ġfiscale": 7340,
      "ĠMainz": 7341,
      "Ġkonijnenh": 7342,
      "Ġpizza": 7343,
      "ĠMadrid": 7344,
      "ĠAlkmaar": 7345,
      "Ġgitaar": 7346,
      "ĠMercedes": 7347,
      "Ġshuttleservice": 7348,
      "Ġbijbehorende": 7349,
      "ĠLeuven": 7350,
      "Ġrelevant": 7351,
      "Ġweigeringspercentage": 7352,
      "ĠDamesschoenen": 7353,
      "Ġlayout": 7354,
      "Ġgepubliceerd": 7355,
      "Ġenthousiasme": 7356,
      "Ġnatuurrampen": 7357,
      "%.": 7358,
      "'t": 7359,
      "-)": 7360,
      ".)": 7361,
      ".âĢĻ": 7362,
      "05": 7363,
      "23": 7364,
      "38": 7365,
      "43": 7366,
      "BO": 7367,
      "Best": 7368,
      "Bekijk": 7369,
      "Eer": 7370,
      "Gel": 7371,
      "Gro": 7372,
      "Mar": 7373,
      "Net": 7374,
      "PO": 7375,
      "RO": 7376,
      "SB": 7377,
      "SP": 7378,
      "Th": 7379,
      "bus": 7380,
      "fit": 7381,
      "gaat": 7382,
      "hangen": 7383,
      "lam": 7384,
      "link": 7385,
      "lamp": 7386,
      "mon": 7387,
      "ness": 7388,
      "pool": 7389,
      "prijzen": 7390,
      "qui": 7391,
      "rant": 7392,
      "sal": 7393,
      "tocol": 7394,
      "win": 7395,
      "wedstrij": 7396,
      "yb": 7397,
      "zinn": 7398,
      "Ġ;": 7399,
      "erve": 7400,
      "Ġdis": 7401,
      "Ġdom": 7402,
      "anal": 7403,
      "anne": 7404,
      "Ġvoc": 7405,
      "Ġvieren": 7406,
      "inet": 7407,
      "eters": 7408,
      "Ġhot": 7409,
      "Ġhals": 7410,
      "Ġhaard": 7411,
      "Ġhypnose": 7412,
      "Ġdeb": 7413,
      "Ġmist": 7414,
      "Ġmoed": 7415,
      "Ġmeg": 7416,
      "Ġmuren": 7417,
      "Ġmont": 7418,
      "Ġbo": 7419,
      "Ġbu": 7420,
      "Ġbv": 7421,
      "Ġbijk": 7422,
      "Ġbuur": 7423,
      "Ġbracht": 7424,
      "Ġbanken": 7425,
      "Ġbilj": 7426,
      "Ġgipspl": 7427,
      "Ġec": 7428,
      "Ġtag": 7429,
      "Ġtaj": 7430,
      "Ġatt": 7431,
      "atoren": 7432,
      "Ġzang": 7433,
      "Ġzagen": 7434,
      "Ġzuiver": 7435,
      "Ġentre": 7436,
      "Ġvandaan": 7437,
      "isa": 7438,
      "Ġkring": 7439,
      "Ġkandid": 7440,
      "Ġeentje": 7441,
      "aarzen": 7442,
      "Ġnek": 7443,
      "Ġnaald": 7444,
      "Ġnachten": 7445,
      "Ġinzien": 7446,
      "led": 7447,
      "leen": 7448,
      "Ġgecontrole": 7449,
      "Ġsem": 7450,
      "Ġsurf": 7451,
      "dent": 7452,
      "Ġjoomla": 7453,
      "oes": 7454,
      "Ġopgev": 7455,
      "Ġbewijzen": 7456,
      "arische": 7457,
      "Ġverwezen": 7458,
      "ross": 7459,
      "Ġuse": 7460,
      "omgeving": 7461,
      "ĠDi": 7462,
      "ĠDon": 7463,
      "ĠDieren": 7464,
      "kent": 7465,
      "Ġlanc": 7466,
      "Ġlong": 7467,
      "Ġlate": 7468,
      "Ġliep": 7469,
      "Ġone": 7470,
      "Ġonget": 7471,
      "Ġonmogelijk": 7472,
      "Ġonlangs": 7473,
      "Ġalbum": 7474,
      "genodigd": 7475,
      "verzet": 7476,
      "verhaal": 7477,
      "ikel": 7478,
      "ikas": 7479,
      "ilis": 7480,
      "illeg": 7481,
      "unicatie": 7482,
      "Ġstra": 7483,
      "Ġstoffen": 7484,
      "Ġsticker": 7485,
      "Ġdatum": 7486,
      "olitie": 7487,
      "ologen": 7488,
      "ouver": 7489,
      "Ġcrisis": 7490,
      "teg": 7491,
      "Ġomtrent": 7492,
      "rac": 7493,
      "ogh": 7494,
      "ĠHeel": 7495,
      "ĠHoek": 7496,
      "ctief": 7497,
      "schen": 7498,
      "schil": 7499,
      "entuin": 7500,
      "Ġfocus": 7501,
      "Ġfestival": 7502,
      "Ġuitgelegd": 7503,
      "Ġuitgenodigd": 7504,
      "ĠBW": 7505,
      "ĠBos": 7506,
      "ĠBuiten": 7507,
      "ĠBanks": 7508,
      "ĠAustral": 7509,
      "ĠEN": 7510,
      "ĠSu": 7511,
      "Ġref": 7512,
      "Ġrep": 7513,
      "Ġreal": 7514,
      "aans": 7515,
      "Ġ1000": 7516,
      "Ġovern": 7517,
      "ĠWi": 7518,
      "ĠWaal": 7519,
      "ĠWall": 7520,
      "Ġzoiets": 7521,
      "ĠNaar": 7522,
      "ads": 7523,
      "ĠOosten": 7524,
      "ĠCultuur": 7525,
      "ĠCuijk": 7526,
      "Ġwaarschuw": 7527,
      "spunt": 7528,
      "Ġprom": 7529,
      "ĠLink": 7530,
      "ĠLekker": 7531,
      "Ġzest": 7532,
      "Ġkanalen": 7533,
      "ĠPan": 7534,
      "ĠPers": 7535,
      "Ġspullen": 7536,
      "Ġspreek": 7537,
      "Ġmochten": 7538,
      "Ġschuld": 7539,
      "isterie": 7540,
      "ĠZIPP": 7541,
      "ĠKw": 7542,
      "ĠKor": 7543,
      "ĠKynocenter": 7544,
      "ĠâĢĶ": 7545,
      "ĠRom": 7546,
      "ĠJon": 7547,
      "ĠJoodse": 7548,
      "indelijk": 7549,
      "Ġontst": 7550,
      "umm": 7551,
      "ieso": 7552,
      "Ġvolop": 7553,
      "stens": 7554,
      "date": 7555,
      "Ġgoedkeuring": 7556,
      "Ġklasse": 7557,
      "plant": 7558,
      "plichting": 7559,
      "acia": 7560,
      "account": 7561,
      "Ġhierin": 7562,
      "voorwaarden": 7563,
      "ugel": 7564,
      "ught": 7565,
      "ĠEneco": 7566,
      "Ġbelangen": 7567,
      "mazon": 7568,
      "Ġmeub": 7569,
      "Ġelders": 7570,
      "neden": 7571,
      "Ġgezocht": 7572,
      "anners": 7573,
      "gelaten": 7574,
      "Ġslaan": 7575,
      "Ġgene": 7576,
      "Ġrot": 7577,
      "Ġroken": 7578,
      "Ġbenodig": 7579,
      "Ġbeheren": 7580,
      "Ġverbod": 7581,
      "Ġsupp": 7582,
      "Ġblijf": 7583,
      "aadpleegd": 7584,
      "Ġdrink": 7585,
      "Ġvertrekken": 7586,
      "meub": 7587,
      "ancy": 7588,
      "eltelijk": 7589,
      "Ġminste": 7590,
      "allet": 7591,
      "nthet": 7592,
      "Ġactieve": 7593,
      "ochten": 7594,
      "owel": 7595,
      "owieso": 7596,
      "Ġinformeren": 7597,
      "ertje": 7598,
      "Ġadministratie": 7599,
      "ĠWesten": 7600,
      "Ġherstel": 7601,
      "problemen": 7602,
      "issaris": 7603,
      "Ġchristen": 7604,
      "zichtig": 7605,
      "Ġ2005": 7606,
      "Ġruimt": 7607,
      "Ġopenbare": 7608,
      "Ġvergoed": 7609,
      "Ġhoogwaardige": 7610,
      "Ġvastgelegd": 7611,
      "Ġ835": 7612,
      "Ġbevatten": 7613,
      "alisme": 7614,
      "Ġjarenlang": 7615,
      "Ġjarenlange": 7616,
      "Ġgesproken": 7617,
      "ship": 7618,
      "ĠSchaff": 7619,
      "Ġoptimale": 7620,
      "Ġverdient": 7621,
      "Ġverdriet": 7622,
      "Ġeindgebruikers": 7623,
      "mpel": 7624,
      "Ġgemeenschap": 7625,
      "ĠBlizzard": 7626,
      "Ġplaatje": 7627,
      "gaven": 7628,
      "Ġscore": 7629,
      "Ġafgestemd": 7630,
      "Ġ08": 7631,
      "uzz": 7632,
      "orpor": 7633,
      "Ġ144": 7634,
      "ialist": 7635,
      "Ġveranderingen": 7636,
      "Ġhartige": 7637,
      "ĠVolk": 7638,
      "Ġkanton": 7639,
      "ĠEurope": 7640,
      "Ġlocaties": 7641,
      "rypt": 7642,
      "ripten": 7643,
      "Ġtranspar": 7644,
      "Ġforum": 7645,
      "ĠGrond": 7646,
      "Ġnew": 7647,
      "Ġstijgt": 7648,
      "Ġfeite": 7649,
      "Ġkrachtige": 7650,
      "valu": 7651,
      "ĠCanin": 7652,
      "Ġsuccesvol": 7653,
      "Ġsuccesvolle": 7654,
      "atting": 7655,
      "Ġvoortd": 7656,
      "ashion": 7657,
      "Ġserieus": 7658,
      "kopp": 7659,
      "Ġbibliotheek": 7660,
      "Ġbegeleiden": 7661,
      "oiler": 7662,
      "Ġseconden": 7663,
      "Ġsecret": 7664,
      "betes": 7665,
      "Ġmonument": 7666,
      "Ġtrainingen": 7667,
      "Ġgarantie": 7668,
      "Ġbarbec": 7669,
      "wisselen": 7670,
      "Ġvoert": 7671,
      "Ġinstallaties": 7672,
      "ĠGrote": 7673,
      "Ġpower": 7674,
      "Ġontmoeten": 7675,
      "Ġmilieuvriendelijke": 7676,
      "Ġaanbieding": 7677,
      "Ġkrant": 7678,
      "Ġbevestiging": 7679,
      "Ġduik": 7680,
      "Ġverzending": 7681,
      "Ġbeoordeling": 7682,
      "wijfeld": 7683,
      "ĠPrim": 7684,
      "iano": 7685,
      "Ġmeldt": 7686,
      "zwam": 7687,
      "Ġsatelliet": 7688,
      "Ġbewegingen": 7689,
      "Ġoutdoor": 7690,
      "Ġdefinitieve": 7691,
      "Ġzakelijke": 7692,
      "Ġaanbieders": 7693,
      "Ġgeproduceerd": 7694,
      "Ġmakelaar": 7695,
      "persoons": 7696,
      "gelegenheid": 7697,
      "ĠGelukkig": 7698,
      "Ġbusinesscentrum": 7699,
      "Elke": 7700,
      "mogelijkheden": 7701,
      "zamel": 7702,
      "Ġaangifte": 7703,
      "ĠBrexit": 7704,
      "Ġmaterialen": 7705,
      "Ġstickers": 7706,
      "Ġflexibel": 7707,
      "Ġannuleren": 7708,
      "Ġdatingsites": 7709,
      "Ġreparaties": 7710,
      "Ġproduceren": 7711,
      "Ġcontroleren": 7712,
      "Plus": 7713,
      "Ġvrolijke": 7714,
      "ĠgeÃ¯sole": 7715,
      "Ġslimme": 7716,
      "Ġspirituele": 7717,
      "ĠBritse": 7718,
      "ĠAcacia": 7719,
      "Ġspeakers": 7720,
      "ĠFreeriderz": 7721,
      "Ġbehoorlijk": 7722,
      "Ġgespecialiseerd": 7723,
      "Ġuitdaging": 7724,
      "Ġextreem": 7725,
      "Ġintroduc": 7726,
      "Ġaankopen": 7727,
      "ĠMarktplaats": 7728,
      "locatie": 7729,
      "Ġpentest": 7730,
      "tendeels": 7731,
      "Ġduizenden": 7732,
      "Ġgewezen": 7733,
      "Ġauthentieke": 7734,
      "Ġbroeikas": 7735,
      "Ġopstanding": 7736,
      "ĠMulti": 7737,
      "Ġprioriteit": 7738,
      "Ġregionale": 7739,
      "Ġincidenteel": 7740,
      "ĠcalorieÃ«n": 7741,
      "Ġafkomstig": 7742,
      "Ġdienstverlening": 7743,
      "Ġmotivatie": 7744,
      "Ġomgekeerde": 7745,
      "Ġchampign": 7746,
      "Ġmanuscripten": 7747,
      "Ġongetwijfeld": 7748,
      "Ġbenodigde": 7749,
      "ĠSchaffhaus": 7750,
      "01": 7751,
      "09": 7752,
      "31": 7753,
      "340": 7754,
      "500": 7755,
      "69": 7756,
      ">>": 7757,
      "Ad": 7758,
      "Bent": 7759,
      "Besluit": 7760,
      "Con": 7761,
      "DE": 7762,
      "EB": 7763,
      "Fi": 7764,
      "Ga": 7765,
      "Jan": 7766,
      "LC": 7767,
      "OO": 7768,
      "Par": 7769,
      "TA": 7770,
      "Toen": 7771,
      "VE": 7772,
      "Via": 7773,
      "Zorg": 7774,
      "boeken": 7775,
      "doet": 7776,
      "fig": 7777,
      "hor": 7778,
      "heeft": 7779,
      "hotel": 7780,
      "iot": 7781,
      "iber": 7782,
      "iool": 7783,
      "iders": 7784,
      "ibr": 7785,
      "jaren": 7786,
      "kap": 7787,
      "lo": 7788,
      "las": 7789,
      "loge": 7790,
      "mond": 7791,
      "maak": 7792,
      "melden": 7793,
      "ove": 7794,
      "pot": 7795,
      "serie": 7796,
      "sator": 7797,
      "soorten": 7798,
      "ux": 7799,
      "uderen": 7800,
      "ules": 7801,
      "ves": 7802,
      "vrouw": 7803,
      "web": 7804,
      "wiel": 7805,
      "Ã´": 7806,
      "Ġ*": 7807,
      "Ġ>": 7808,
      "ĠÐ": 7809,
      "Ġir": 7810,
      "Ġ..": 7811,
      "Ġill": 7812,
      "Ġ!!": 7813,
      "erij": 7814,
      "Ġdw": 7815,
      "Ġdel": 7816,
      "Ġdalen": 7817,
      "Ġdui": 7818,
      "Ġdomein": 7819,
      "Ġdownload": 7820,
      "Ġvoeg": 7821,
      "Ġvaas": 7822,
      "Ġvenn": 7823,
      "inf": 7824,
      "ijm": 7825,
      "ijp": 7826,
      "Ġochten": 7827,
      "Ġhar": 7828,
      "Ġdegene": 7829,
      "ory": 7830,
      "orge": 7831,
      "orven": 7832,
      "ores": 7833,
      "orige": 7834,
      "Ġmust": 7835,
      "Ġmore": 7836,
      "Ġmantel": 7837,
      "sters": 7838,
      "staand": 7839,
      "Ġwonder": 7840,
      "Ġwinn": 7841,
      "ĠwÃ©l": 7842,
      "Ġbond": 7843,
      "Ġgo": 7844,
      "Ġgolf": 7845,
      "Ġemail": 7846,
      "Ġeditie": 7847,
      "Ġtr": 7848,
      "Ġtv": 7849,
      "Ġtelt": 7850,
      "Ġenzo": 7851,
      "isney": 7852,
      "Ġkatten": 7853,
      "itor": 7854,
      "Ġnak": 7855,
      "Ġnederland": 7856,
      "Ġingev": 7857,
      "Ġinbouw": 7858,
      "Ġinlog": 7859,
      "lee": 7860,
      "lear": 7861,
      "lees": 7862,
      "less": 7863,
      "leveren": 7864,
      "levering": 7865,
      "Ġpauze": 7866,
      "Ġsens": 7867,
      "Ġsowieso": 7868,
      "deringen": 7869,
      "reeuw": 7870,
      "reerde": 7871,
      "Ġjur": 7872,
      "Ġjud": 7873,
      "alth": 7874,
      "alisten": 7875,
      "ĠbeÃ«": 7876,
      "Ġbewegen": 7877,
      "Ġbesproken": 7878,
      "Ġverde": 7879,
      "Ġversl": 7880,
      "Ġverwerking": 7881,
      "Ġvergeet": 7882,
      "omach": 7883,
      "ĠDol": 7884,
      "Ġloon": 7885,
      "Ġlact": 7886,
      "Ġluid": 7887,
      "Ġlamp": 7888,
      "Ġonn": 7889,
      "Ġalweer": 7890,
      "gewerkt": 7891,
      "genot": 7892,
      "Ġaangev": 7893,
      "Ġaangeven": 7894,
      "Ġaankomen": 7895,
      "Ġaandeel": 7896,
      "Ġaanmaken": 7897,
      "ilanden": 7898,
      "Ġsteen": 7899,
      "Ġstoelen": 7900,
      "Ġstruct": 7901,
      "olk": 7902,
      "olon": 7903,
      "ollen": 7904,
      "outh": 7905,
      "aming": 7906,
      "Ġcel": 7907,
      "Ġcast": 7908,
      "Ġcard": 7909,
      "tewel": 7910,
      "Ġomvang": 7911,
      "ogne": 7912,
      "ĠHP": 7913,
      "ĠHab": 7914,
      "ĠHans": 7915,
      "ĠHET": 7916,
      "Ġdiepe": 7917,
      "ases": 7918,
      "Ġfig": 7919,
      "essen": 7920,
      "Ġuitdagen": 7921,
      "ĠBet": 7922,
      "ĠBoeken": 7923,
      "ĠMy": 7924,
      "ĠMerl": 7925,
      "ĠAchter": 7926,
      "ĠAange": 7927,
      "ĠEer": 7928,
      "ĠEth": 7929,
      "ĠSe": 7930,
      "Ġbijeen": 7931,
      "stek": 7932,
      "Ġlezers": 7933,
      "Ġovername": 7934,
      "ĠWet": 7935,
      "ĠWoon": 7936,
      "ĠWood": 7937,
      "ulde": 7938,
      "Ġ220": 7939,
      "ooie": 7940,
      "icol": 7941,
      "ĠNee": 7942,
      "ĠTim": 7943,
      "ĠTinder": 7944,
      "ĠTest": 7945,
      "ĠTosc": 7946,
      "ĠGeest": 7947,
      "ĠOl": 7948,
      "ĠOut": 7949,
      "Ġdoorlopen": 7950,
      "ĠLM": 7951,
      "ĠPrijs": 7952,
      "ĠPoy": 7953,
      "Ġondertussen": 7954,
      "iteindelijk": 7955,
      "Ġspa": 7956,
      "Ġschad": 7957,
      "Ġschip": 7958,
      "Ġschoot": 7959,
      "ondition": 7960,
      "teress": 7961,
      "ĠKunst": 7962,
      "uta": 7963,
      "ĠRet": 7964,
      "ĠRel": 7965,
      "ĠReg": 7966,
      "beurs": 7967,
      "bestanden": 7968,
      "ĠJun": 7969,
      "ĠJap": 7970,
      "ĠJac": 7971,
      "ĠJones": 7972,
      "kering": 7973,
      "oda": 7974,
      "âĢĻ-": 7975,
      "Ġvolk": 7976,
      "ĠFil": 7977,
      "ĠFree": 7978,
      "Ġconte": 7979,
      "Ġgrotendeels": 7980,
      "slotte": 7981,
      "Ġblader": 7982,
      "Ġbladeren": 7983,
      "Ġklok": 7984,
      "afstand": 7985,
      "plannen": 7986,
      "Ġbesteed": 7987,
      "ipt": 7988,
      "Ġterror": 7989,
      "voordeel": 7990,
      "Ġbedankt": 7991,
      "Ġtocht": 7992,
      "Ġnavig": 7993,
      "acter": 7994,
      "actief": 7995,
      "wijde": 7996,
      "Ġgezamen": 7997,
      "ĠUiteraard": 7998,
      "Ġgenaamd": 7999,
      "Ġexport": 8000,
      "Ġbenad": 8001,
      "vanaf": 8002,
      "Ġbeschrijven": 8003,
      "Ġ42": 8004,
      "ĠStrong": 8005,
      "Ġbehaald": 8006,
      "rouwd": 8007,
      "bericht": 8008,
      "Ġinterf": 8009,
      "Ġinterne": 8010,
      "Ġdagje": 8011,
      "Ġbezien": 8012,
      "Ġsamengesteld": 8013,
      "Ġ55": 8014,
      "Ġsuiker": 8015,
      "Ġhelp": 8016,
      "Ġverkeerde": 8017,
      "iedingen": 8018,
      "Ġvertelde": 8019,
      "ronica": 8020,
      "Ġminuut": 8021,
      "Ġthans": 8022,
      "ervaring": 8023,
      "Ġgehoord": 8024,
      "nting": 8025,
      "ations": 8026,
      "Ġvlot": 8027,
      "Ġterugk": 8028,
      "Ġterugkomen": 8029,
      "Ġterugkeer": 8030,
      "Ġhandels": 8031,
      "obb": 8032,
      "Ġherin": 8033,
      "Ġchem": 8034,
      "Ġ198": 8035,
      "Ġverloop": 8036,
      "Ġverlopen": 8037,
      "ommigen": 8038,
      "overeenkomst": 8039,
      "erman": 8040,
      "Ġplaatsvinden": 8041,
      "Ġbesteden": 8042,
      "arium": 8043,
      "Ġrace": 8044,
      "appe": 8045,
      "Ġgekopp": 8046,
      "Ġzonlicht": 8047,
      "Ġwereldwijde": 8048,
      "Ġrechtbank": 8049,
      "Ġaangesloten": 8050,
      "eiland": 8051,
      "thans": 8052,
      "Ġsymp": 8053,
      "Ġgereed": 8054,
      "INE": 8055,
      "Ġvermoe": 8056,
      "Ġbeslist": 8057,
      "Ġstadje": 8058,
      "manager": 8059,
      "ĠBeheer": 8060,
      "Ġverdie": 8061,
      "Ġtenminste": 8062,
      "ĠProvincie": 8063,
      "Ġgaven": 8064,
      "Ġgauw": 8065,
      "priv": 8066,
      "Ġtoenemen": 8067,
      "Ġrijdt": 8068,
      "Ġgestart": 8069,
      "Ġvisa": 8070,
      "Ġmaatwerk": 8071,
      "Ġmaatregel": 8072,
      "Ġmaatschappij": 8073,
      "Ġ09": 8074,
      "Ġgetuigen": 8075,
      "Ġshow": 8076,
      "ibro": 8077,
      "Ġopleveren": 8078,
      "Ġklantenservice": 8079,
      "Ġparkeren": 8080,
      "Ġbekendste": 8081,
      "ĠReal": 8082,
      "ĠRewards": 8083,
      "ĠVolks": 8084,
      "ators": 8085,
      "atorium": 8086,
      "boom": 8087,
      "plegen": 8088,
      "Ġcreat": 8089,
      "Ġcreatief": 8090,
      "Ġcredit": 8091,
      "ĠElk": 8092,
      "Ġvervelend": 8093,
      "vertrouwen": 8094,
      "Ġrustig": 8095,
      "Ġduurzaamheid": 8096,
      "Ġfinancier": 8097,
      "Ġavonds": 8098,
      "Ġconsument": 8099,
      "ĠDuitsch": 8100,
      "Ġgepaard": 8101,
      "attingen": 8102,
      "Ġontdek": 8103,
      "Ġconcreet": 8104,
      "gerichte": 8105,
      "Ġwandeling": 8106,
      "Ġtelefonisch": 8107,
      "Ġdorpje": 8108,
      "Ġuitvinding": 8109,
      "Ġcontracten": 8110,
      "Ġbiologische": 8111,
      "Ġlossen": 8112,
      "Ġgeselect": 8113,
      "Ġverzekering": 8114,
      "Ġbegrijp": 8115,
      "ARU": 8116,
      "Ġverschilt": 8117,
      "ĠLimburgse": 8118,
      "Ġzachte": 8119,
      "Ġpsychop": 8120,
      "Ġadvertentie": 8121,
      "Ġdemon": 8122,
      "Ġbevestigen": 8123,
      "Ġbevestigd": 8124,
      "zoals": 8125,
      "Ġonderzocht": 8126,
      "Ġfysiek": 8127,
      "Ġbetrouwbaar": 8128,
      "Ġverklaring": 8129,
      "Ġveroorzaken": 8130,
      "speler": 8131,
      "ĠLauren": 8132,
      "ĠÂ·": 8133,
      "Ġtoevoeg": 8134,
      "ownloaden": 8135,
      "Ġindrukwek": 8136,
      "Ġraadplegen": 8137,
      "Ġtalent": 8138,
      "Ġovertuigd": 8139,
      "Ġalternatieve": 8140,
      "knop": 8141,
      "swaardigheden": 8142,
      "Ġinvesterings": 8143,
      "Ġgoedkope": 8144,
      "Ġopmerking": 8145,
      "Ġappartementen": 8146,
      "Ġvereist": 8147,
      "Ġgoochelaar": 8148,
      "Ġcomplete": 8149,
      "ĠefficiÃ«n": 8150,
      "Ġhoreca": 8151,
      "Ġgedeeltelijk": 8152,
      "kunde": 8153,
      "Ġprincipe": 8154,
      "ĠALLE": 8155,
      "Ġwerkelijkheid": 8156,
      "ratische": 8157,
      "Ġvrolijk": 8158,
      "Ġbloei": 8159,
      "Ġkoolhy": 8160,
      "verwarming": 8161,
      "Ġoefeningen": 8162,
      "Ġespressomach": 8163,
      "Ġkinderporno": 8164,
      "ĠTegenwoordig": 8165,
      "ways": 8166,
      "Ġheuvels": 8167,
      "Ġballonnen": 8168,
      "Ġtegelijkertijd": 8169,
      "ĠPartij": 8170,
      "ontwikkeling": 8171,
      "Ġcomplexe": 8172,
      "ĠLevefano": 8173,
      "Ġkwalitatief": 8174,
      "Ġvrachtwagen": 8175,
      "gesprek": 8176,
      "Ġonafhankelijk": 8177,
      "ĠCheck": 8178,
      "schillende": 8179,
      "ĠKortom": 8180,
      "Ġvolwassenen": 8181,
      "ĠTrenorol": 8182,
      "bescherming": 8183,
      "activiteiten": 8184,
      "Ġhorizont": 8185,
      "wortel": 8186,
      "Ġlengte": 8187,
      "ĠVitamine": 8188,
      "ĠRussische": 8189,
      "Ġavontuur": 8190,
      "Ġafspeellijst": 8191,
      "oÃ¯den": 8192,
      "Ġactuator": 8193,
      "ĠArthur": 8194,
      "ĠIsraÃ«l": 8195,
      "Ġkantonrechter": 8196,
      "ĠMultiPlus": 8197,
      "ĠSchaffhausen": 8198,
      "ĠPoynting": 8199,
      "Ġgekoppeld": 8200,
      "Ġkoolhydr": 8201,
      "Ġespressomachine": 8202,
      "!)": 8203,
      ",,": 8204,
      "->>": 8205,
      ".'": 8206,
      "07": 8207,
      "42": 8208,
      "56": 8209,
      "?!": 8210,
      "Am": 8211,
      "BR": 8212,
      "Bel": 8213,
      "Binnen": 8214,
      "DO": 8215,
      "GE": 8216,
      "GEN": 8217,
      "LT": 8218,
      "MK": 8219,
      "Mooi": 8220,
      "PV": 8221,
      "SM": 8222,
      "Toch": 8223,
      "Tabs": 8224,
      "YUN": 8225,
      "Zelf": 8226,
      "ao": 8227,
      "dier": 8228,
      "dingen": 8229,
      "doc": 8230,
      "dings": 8231,
      "doelen": 8232,
      "ear": 8233,
      "fact": 8234,
      "gier": 8235,
      "htt": 8236,
      "ipl": 8237,
      "kond": 8238,
      "kaas": 8239,
      "laten": 8240,
      "look": 8241,
      "mar": 8242,
      "mus": 8243,
      "molen": 8244,
      "muziek": 8245,
      "nes": 8246,
      "pon": 8247,
      "site": 8248,
      "svoorzien": 8249,
      "uTabs": 8250,
      "vragen": 8251,
      "voegen": 8252,
      "waart": 8253,
      "zag": 8254,
      "Ġâ": 8255,
      "ening": 8256,
      "Ġdist": 8257,
      "Ġdarktable": 8258,
      "Ġvaar": 8259,
      "Ġvon": 8260,
      "Ġvouch": 8261,
      "Ġvoice": 8262,
      "etsen": 8263,
      "elier": 8264,
      "Ġocc": 8265,
      "Ġhas": 8266,
      "Ġhorm": 8267,
      "Ġhip": 8268,
      "Ġhiel": 8269,
      "Ġhaalde": 8270,
      "Ġhitte": 8271,
      "Ġhobby": 8272,
      "orad": 8273,
      "star": 8274,
      "Ġwijk": 8275,
      "Ġwifi": 8276,
      "Ġboe": 8277,
      "Ġborg": 8278,
      "Ġbtw": 8279,
      "Ġburgers": 8280,
      "Ġgunst": 8281,
      "iesten": 8282,
      "Ġevalu": 8283,
      "Ġtak": 8284,
      "atische": 8285,
      "Ġzil": 8286,
      "Ġzaal": 8287,
      "Ġkoopt": 8288,
      "Ġnul": 8289,
      "Ġingang": 8290,
      "Ġinvent": 8291,
      "Ġineens": 8292,
      "Ġinschak": 8293,
      "oning": 8294,
      "lever": 8295,
      "Ġpant": 8296,
      "Ġpage": 8297,
      "Ġset": 8298,
      "Ġsaf": 8299,
      "Ġsales": 8300,
      "oeil": 8301,
      "igent": 8302,
      "ala": 8303,
      "Ġbeen": 8304,
      "Ġbeiden": 8305,
      "Ġvery": 8306,
      "Ġverrijk": 8307,
      "chte": 8308,
      "roon": 8309,
      "Ġvoorsp": 8310,
      "Ġvoorkomt": 8311,
      "Ġvoorgaande": 8312,
      "Ġvoorzichtig": 8313,
      "ĠDijk": 8314,
      "ĠDav": 8315,
      "ĠDutch": 8316,
      "ijnse": 8317,
      "Ġlift": 8318,
      "Ġlapt": 8319,
      "Ġlobby": 8320,
      "Ġlaadt": 8321,
      "Ġalias": 8322,
      "verm": 8323,
      "Ġaankomst": 8324,
      "Ġaandelen": 8325,
      "Ġaangenomen": 8326,
      "Ġaanstaande": 8327,
      "Ġstorm": 8328,
      "Ġstren": 8329,
      "Ġstage": 8330,
      "Ġstook": 8331,
      "Ġstomer": 8332,
      "ams": 8333,
      "amin": 8334,
      "amis": 8335,
      "amelijke": 8336,
      "Ġcab": 8337,
      "Ġcapaciteit": 8338,
      "ĠHot": 8339,
      "ĠHistor": 8340,
      "ĠHYUN": 8341,
      "zeg": 8342,
      "schalige": 8343,
      "Ġermee": 8344,
      "Ġerfgoed": 8345,
      "Ġdiesel": 8346,
      "Ġfen": 8347,
      "Ġfeder": 8348,
      "Ġfans": 8349,
      "Ġfree": 8350,
      "âĢ¯": 8351,
      "ĠBoek": 8352,
      "ĠBorg": 8353,
      "ĠBook": 8354,
      "ĠBaby": 8355,
      "ĠBENZ": 8356,
      "elegen": 8357,
      "ĠMak": 8358,
      "ĠMaur": 8359,
      "ĠMarketing": 8360,
      "ĠAmazon": 8361,
      "ĠEs": 8362,
      "ĠEigen": 8363,
      "ĠSa": 8364,
      "ĠSter": 8365,
      "ague": 8366,
      "aalf": 8367,
      "Ġwesten": 8368,
      "Ġwegens": 8369,
      "ulatie": 8370,
      "ĠIlex": 8371,
      "ĠIOA": 8372,
      "imenten": 8373,
      "ĠVE": 8374,
      "ĠVen": 8375,
      "ĠVind": 8376,
      "ĠVos": 8377,
      "ĠVandaag": 8378,
      "send": 8379,
      "ooch": 8380,
      "ooid": 8381,
      "ĠNadat": 8382,
      "ĠTussen": 8383,
      "ĠTwit": 8384,
      "ĠGolf": 8385,
      "angs": 8386,
      "ĠCa": 8387,
      "ĠCARU": 8388,
      "Ġwaarden": 8389,
      "spir": 8390,
      "Ġdoorheen": 8391,
      "Ġprote": 8392,
      "ĠLeg": 8393,
      "sex": 8394,
      "ĠPON": 8395,
      "ĠPrem": 8396,
      "Ġonderwerpen": 8397,
      "Ġgeboekt": 8398,
      "Ġafw": 8399,
      "Ġafsluit": 8400,
      "Ġafloop": 8401,
      "Ġspiegel": 8402,
      "Ġschiet": 8403,
      "Ġschaak": 8404,
      "Ġschrift": 8405,
      "istr": 8406,
      "istieke": 8407,
      "Ġrit": 8408,
      "Ġwaterv": 8409,
      "ĠKerk": 8410,
      "ĠRu": 8411,
      "ĠRam": 8412,
      "ĠRome": 8413,
      "indingen": 8414,
      "kere": 8415,
      "pend": 8416,
      "pens": 8417,
      "odi": 8418,
      "umps": 8419,
      "ĠInmiddels": 8420,
      "Ġconversie": 8421,
      "Ġconclusie": 8422,
      "Ġblokkade": 8423,
      "Ġwill": 8424,
      "Ġklikken": 8425,
      "play": 8426,
      "pload": 8427,
      "onderd": 8428,
      "Ġbestanden": 8429,
      "egelijk": 8430,
      "ipatie": 8431,
      "ipping": 8432,
      "Ġbedacht": 8433,
      "arendre": 8434,
      "inders": 8435,
      "Ġnadenken": 8436,
      "Ġ34": 8437,
      "aardoor": 8438,
      "ankelijke": 8439,
      "Ġgezinnen": 8440,
      "urend": 8441,
      "ĠUl": 8442,
      "Ġgedreven": 8443,
      "Ġgenoten": 8444,
      "Ġexc": 8445,
      "Ġeigenschappen": 8446,
      "Ġrock": 8447,
      "Ġtijdig": 8448,
      "grind": 8449,
      "merking": 8450,
      "ellenberg": 8451,
      "volging": 8452,
      "Ġ435": 8453,
      "gebieden": 8454,
      "ĠStel": 8455,
      "ĠStar": 8456,
      "ĠStaat": 8457,
      "Ġbehalen": 8458,
      "nemende": 8459,
      "Ġprins": 8460,
      "ondensator": 8461,
      "weet": 8462,
      "Ġverkoopt": 8463,
      "Ġverkeers": 8464,
      "Ġvertalen": 8465,
      "Ġzorgverzekering": 8466,
      "ronom": 8467,
      "Ġzwak": 8468,
      "rukken": 8469,
      "Ġhuishouden": 8470,
      "oorts": 8471,
      "Ġwetenschappelijk": 8472,
      "ensie": 8473,
      "ommels": 8474,
      "tube": 8475,
      "Ġvergader": 8476,
      "ĠChi": 8477,
      "arian": 8478,
      "rix": 8479,
      "Ġnetwerken": 8480,
      "Ġrauwe": 8481,
      "brieven": 8482,
      "2018": 8483,
      "ullet": 8484,
      "Ġartiesten": 8485,
      "oney": 8486,
      "Ġprofiteren": 8487,
      "Ġgeraakt": 8488,
      "achel": 8489,
      "Ġvermeer": 8490,
      "ĠSpaanse": 8491,
      "Ġbesluiten": 8492,
      "rekenen": 8493,
      "coach": 8494,
      "conc": 8495,
      "Ġimm": 8496,
      "Ġcollege": 8497,
      "Ġrijschool": 8498,
      "ĠLeuk": 8499,
      "ĠLeiden": 8500,
      "uzik": 8501,
      "Ġkortings": 8502,
      "Ġhoofdkantoor": 8503,
      "Ġgroeit": 8504,
      "ĠMarj": 8505,
      "ĠMarco": 8506,
      "etters": 8507,
      "Ġplekke": 8508,
      "instellingen": 8509,
      "Ġintentie": 8510,
      "Ġintellig": 8511,
      "sproblemen": 8512,
      "opties": 8513,
      "Ġvervallen": 8514,
      "ups": 8515,
      "Ġoorlog": 8516,
      "Online": 8517,
      "Ġflip": 8518,
      "Ġduurzaam": 8519,
      "Ġculturen": 8520,
      "Ġspeelde": 8521,
      "ijservice": 8522,
      "schrijvers": 8523,
      "eeuwse": 8524,
      "merika": 8525,
      "Ġcorrig": 8526,
      "Ġhalve": 8527,
      "Ġbruin": 8528,
      "Ġhuurder": 8529,
      "Ġprofessioneel": 8530,
      "Ġlokaal": 8531,
      "eefd": 8532,
      "Ġmailbox": 8533,
      "Ġkijkers": 8534,
      "Ġklimmen": 8535,
      "uilding": 8536,
      "ĠClub": 8537,
      "Ġverwachtingen": 8538,
      "Ġvoetb": 8539,
      "Ġpraktisch": 8540,
      "Ġbrandweer": 8541,
      "ĠGroot": 8542,
      "Ġolif": 8543,
      "veiligheid": 8544,
      "Ġbeschermd": 8545,
      "Ġverbetert": 8546,
      "Ġstudent": 8547,
      "verbruik": 8548,
      "Ġgedraging": 8549,
      "Ġexperts": 8550,
      "Ġgeloofs": 8551,
      "Ġspecialisten": 8552,
      "Ġinzichten": 8553,
      "ungle": 8554,
      "Zoals": 8555,
      "Ġparkeerplaats": 8556,
      "Ġtitels": 8557,
      "DAI": 8558,
      "ĠBestuur": 8559,
      "Ġgooien": 8560,
      "Ġborst": 8561,
      "beheerder": 8562,
      "roeven": 8563,
      "Ġhyper": 8564,
      "ĠhygiÃ«": 8565,
      "Ġcamping": 8566,
      "Ġinspireren": 8567,
      "Ġdefinitief": 8568,
      "Ġtoonaan": 8569,
      "uleert": 8570,
      "Ġbetrokkenheid": 8571,
      "Ġzoektocht": 8572,
      "Ġherkennen": 8573,
      "Ġmethoden": 8574,
      "Ġindividu": 8575,
      "Ġbetaalbare": 8576,
      "Ġupdate": 8577,
      "Ġobject": 8578,
      "Ġonderscheiden": 8579,
      "ĠpotentiÃ«le": 8580,
      "verlies": 8581,
      "verlichting": 8582,
      "machines": 8583,
      "Ġreligieuze": 8584,
      "Ġfrustr": 8585,
      "ĠGeraadpleegd": 8586,
      "Ġreceptie": 8587,
      "Ġkunstenaar": 8588,
      "Welke": 8589,
      "Ġvijft": 8590,
      "Ġvereiste": 8591,
      "Ġongeacht": 8592,
      "avirus": 8593,
      "Ġvestiging": 8594,
      "Ġvestigingen": 8595,
      "Ġongeluk": 8596,
      "ĠManagement": 8597,
      "Ġwissel": 8598,
      "Ġtomaat": 8599,
      "alistisch": 8600,
      "Ġverbruikt": 8601,
      "Ġadviseren": 8602,
      "Ġschimmelbestrijding": 8603,
      "Ġhumor": 8604,
      "Ġhedendaagse": 8605,
      "wolk": 8606,
      "Ġmeenemen": 8607,
      "ĠResort": 8608,
      "Ġbeslissing": 8609,
      "model": 8610,
      "Ġchecker": 8611,
      "Ġmagazine": 8612,
      "ĠMicha": 8613,
      "----------------": 8614,
      "OUT": 8615,
      "Ġnoordelijke": 8616,
      "Ġernstige": 8617,
      "ĠWorld": 8618,
      "Ġklassieke": 8619,
      "Ġreserveren": 8620,
      "Ġexpertise": 8621,
      "Ġuiteenlopende": 8622,
      "installatie": 8623,
      "wasserijservice": 8624,
      "Ġhttp": 8625,
      "Ġwettelijke": 8626,
      "ĠbeÃ¯nvloeden": 8627,
      "Ġlachen": 8628,
      "ĠRoyal": 8629,
      "ĠAPK": 8630,
      "ĠAndalo": 8631,
      "ĠGriekse": 8632,
      "oplossing": 8633,
      "Ġfrisse": 8634,
      "Ġvenster": 8635,
      "Ġagress": 8636,
      "Ġjournalist": 8637,
      "Ġhuwelijksfeest": 8638,
      "Ġviewer": 8639,
      "Ġgerenov": 8640,
      "Ġomvormers": 8641,
      "Ġreclame": 8642,
      "Ġmodule": 8643,
      "Ġcommentaar": 8644,
      "ndroom": 8645,
      "Ġperspectief": 8646,
      "Ġfilosof": 8647,
      "Ġfabrikant": 8648,
      "brauw": 8649,
      "kapping": 8650,
      "Ġisolatie": 8651,
      "ĠAziÃ«": 8652,
      "ĠLeeuwarden": 8653,
      "ĠPDF": 8654,
      "Ġvolume": 8655,
      "hoorn": 8656,
      "Ġkoekjes": 8657,
      "ĠWindows": 8658,
      "Ġwaarborgsom": 8659,
      "ĠKeruTabs": 8660,
      "Ġcondensatie": 8661,
      "Ġolijfolie": 8662,
      "Ġpassagiers": 8663,
      "Ġstraks": 8664,
      "Ġvennoot": 8665,
      "Ġochtends": 8666,
      "ĠBoekenweek": 8667,
      "Ġcontext": 8668,
      "Ġvonnis": 8669,
      "Ġstomerij": 8670,
      "ĠHYUNDAI": 8671,
      "ĠBENZINE": 8672,
      "ĠTwitter": 8673,
      "arendregt": 8674,
      ",\"": 8675,
      "100": 8676,
      "240": 8677,
      "82": 8678,
      "97": 8679,
      "Amerika": 8680,
      "Bed": 8681,
      "Cl": 8682,
      "Com": 8683,
      "EV": 8684,
      "Europ": 8685,
      "Hart": 8686,
      "Hotel": 8687,
      "IST": 8688,
      "Mobile": 8689,
      "Nee": 8690,
      "OC": 8691,
      "PU": 8692,
      "RC": 8693,
      "TV": 8694,
      "US": 8695,
      "Vandaag": 8696,
      "Yong": 8697,
      "Zijn": 8698,
      "bi": 8699,
      "buiten": 8700,
      "ca": 8701,
      "ci": 8702,
      "cal": 8703,
      "cker": 8704,
      "camp": 8705,
      "dro": 8706,
      "dicht": 8707,
      "dragen": 8708,
      "ekend": 8709,
      "gassen": 8710,
      "gifte": 8711,
      "hi": 8712,
      "haar": 8713,
      "hard": 8714,
      "hoofd": 8715,
      "iop": 8716,
      "jaars": 8717,
      "ka": 8718,
      "ko": 8719,
      "kante": 8720,
      "kbrauw": 8721,
      "lor": 8722,
      "laan": 8723,
      "lief": 8724,
      "lied": 8725,
      "mas": 8726,
      "pak": 8727,
      "pten": 8728,
      "pad": 8729,
      "palen": 8730,
      "paden": 8731,
      "riv": 8732,
      "rice": 8733,
      "sang": 8734,
      "szins": 8735,
      "tar": 8736,
      "top": 8737,
      "the": 8738,
      "type": 8739,
      "uige": 8740,
      "upp": 8741,
      "vocht": 8742,
      "vakantie": 8743,
      "wn": 8744,
      "wes": 8745,
      "walk": 8746,
      "yne": 8747,
      "Â°": 8748,
      "Ġ=": 8749,
      "Ġ@": 8750,
      "Ġid": 8751,
      "Ġif": 8752,
      "ĭâĢ": 8753,
      "eraal": 8754,
      "erap": 8755,
      "eride": 8756,
      "erings": 8757,
      "Ġdoden": 8758,
      "Ġdoch": 8759,
      "Ġdyn": 8760,
      "Ġdownloaden": 8761,
      "Ġveert": 8762,
      "ino": 8763,
      "elz": 8764,
      "elat": 8765,
      "elance": 8766,
      "Ġoosten": 8767,
      "Ġhinder": 8768,
      "Ġharde": 8769,
      "Ġdeden": 8770,
      "Ġdegelijk": 8771,
      "ori": 8772,
      "Ġmuis": 8773,
      "Ġmalen": 8774,
      "Ġmann": 8775,
      "Ġmark": 8776,
      "Ġmbo": 8777,
      "Ġmama": 8778,
      "stap": 8779,
      "sturen": 8780,
      "stick": 8781,
      "stromen": 8782,
      "Ġwal": 8783,
      "Ġwint": 8784,
      "Ġwolven": 8785,
      "Ġbon": 8786,
      "Ġbra": 8787,
      "Ġbuff": 8788,
      "ieÃ«n": 8789,
      "Ġtim": 8790,
      "Ġtouch": 8791,
      "Ġtypen": 8792,
      "Ġtrisomie": 8793,
      "Ġawes": 8794,
      "ata": 8795,
      "atre": 8796,
      "atte": 8797,
      "aterdag": 8798,
      "Ġzuiden": 8799,
      "Ġkoor": 8800,
      "Ġkrok": 8801,
      "Ġkitesurf": 8802,
      "ith": 8803,
      "ĠnÃ³": 8804,
      "Ġinkomsten": 8805,
      "inge": 8806,
      "ingsp": 8807,
      "leer": 8808,
      "lect": 8809,
      "Ġgever": 8810,
      "Ġgeste": 8811,
      "ĠgeÃ¯nt": 8812,
      "Ġgeoptim": 8813,
      "Ġpist": 8814,
      "Ġpomp": 8815,
      "deerde": 8816,
      "Ġserv": 8817,
      "Ġsollicit": 8818,
      "oegt": 8819,
      "Ġopp": 8820,
      "Ġopger": 8821,
      "Ġopslag": 8822,
      "Ġopgesteld": 8823,
      "Ġopname": 8824,
      "Ġopgebouwd": 8825,
      "album": 8826,
      "Ġbeoef": 8827,
      "Ġbeauty": 8828,
      "arisch": 8829,
      "Ġverstaan": 8830,
      "Ġverslag": 8831,
      "round": 8832,
      "ĠDaardoor": 8833,
      "Ġlat": 8834,
      "Ġlui": 8835,
      "Ġlav": 8836,
      "Ġlente": 8837,
      "Ġlampen": 8838,
      "Ġletters": 8839,
      "Ġonaan": 8840,
      "Ġonkru": 8841,
      "gemaal": 8842,
      "Ġaankomt": 8843,
      "Ġdatac": 8844,
      "oler": 8845,
      "ough": 8846,
      "Ġcy": 8847,
      "Ġcit": 8848,
      "Ġcul": 8849,
      "Ġcrypt": 8850,
      "ray": 8851,
      "Ġzijnde": 8852,
      "ĠHer": 8853,
      "ĠHan": 8854,
      "ĠHunten": 8855,
      "ĠHaya": 8856,
      "rub": 8857,
      "ruis": 8858,
      "Ġerger": 8859,
      "ope": 8860,
      "opy": 8861,
      "ebelz": 8862,
      "Ġfire": 8863,
      "Ġfibro": 8864,
      "Ġuiterm": 8865,
      "Ġuitgaan": 8866,
      "Ġuitkering": 8867,
      "ersp": 8868,
      "ĠBro": 8869,
      "ĠBart": 8870,
      "ĠBern": 8871,
      "ĠBarendregt": 8872,
      "ĠMA": 8873,
      "ĠMc": 8874,
      "ĠMas": 8875,
      "ĠMag": 8876,
      "ĠMir": 8877,
      "ĠMail": 8878,
      "ĠMidden": 8879,
      "ĠAB": 8880,
      "ĠAmer": 8881,
      "ĠEF": 8882,
      "ĠEU": 8883,
      "ĠEÃ©n": 8884,
      "ĠST": 8885,
      "ĠShop": 8886,
      "Ġrealisatie": 8887,
      "Ġleerk": 8888,
      "Ġlezer": 8889,
      "Ġ120": 8890,
      "Ġoverge": 8891,
      "Ġovergenomen": 8892,
      "ĠWal": 8893,
      "ĠWill": 8894,
      "ĠWitte": 8895,
      "ĠIde": 8896,
      "imatie": 8897,
      "imeter": 8898,
      "ĠVin": 8899,
      "ĠVul": 8900,
      "ĠVert": 8901,
      "ĠVAN": 8902,
      "ĠVict": 8903,
      "embad": 8904,
      "ooft": 8905,
      "ooster": 8906,
      "icap": 8907,
      "ĠNL": 8908,
      "ĠNoor": 8909,
      "ĠNog": 8910,
      "ĠNiel": 8911,
      "ado": 8912,
      "ading": 8913,
      "adget": 8914,
      "ĠGo": 8915,
      "ĠGet": 8916,
      "ĠCode": 8917,
      "ĠCyp": 8918,
      "ĠCons": 8919,
      "ĠCDA": 8920,
      "ĠCai": 8921,
      "uurstof": 8922,
      "spiegel": 8923,
      "Ġprogram": 8924,
      "ĠLor": 8925,
      "ĠLad": 8926,
      "ĠLang": 8927,
      "ĠLater": 8928,
      "ĠPiet": 8929,
      "ĠPep": 8930,
      "Ġafger": 8931,
      "Ġafvoer": 8932,
      "Ġafsche": 8933,
      "Ġsporen": 8934,
      "Ġmosl": 8935,
      "Ġschel": 8936,
      "Ġschrik": 8937,
      "istra": 8938,
      "ĠZoek": 8939,
      "ĠZonder": 8940,
      "Ġrente": 8941,
      "Ġallebe": 8942,
      "ĠâĢĭâĢ": 8943,
      "ĠRuim": 8944,
      "Ġonthouden": 8945,
      "Ġontwerpen": 8946,
      "achts": 8947,
      "ummers": 8948,
      "Ġvoldoet": 8949,
      "Ġplas": 8950,
      "Ġbetwist": 8951,
      "ĠFin": 8952,
      "ĠFor": 8953,
      "ĠFocus": 8954,
      "Ġdaarover": 8955,
      "slid": 8956,
      "slaap": 8957,
      "Ġmeedoen": 8958,
      "ellings": 8959,
      "Ġwilden": 8960,
      "Ġklap": 8961,
      "Ġveelal": 8962,
      "Ġgemeten": 8963,
      "ipes": 8964,
      "Ġeerdere": 8965,
      "periode": 8966,
      "peraturen": 8967,
      "ducent": 8968,
      "Ġgevuld": 8969,
      "Ġgevoelens": 8970,
      "iramis": 8971,
      "ĠAlbert": 8972,
      "ĠEng": 8973,
      "ĠEngels": 8974,
      "alender": 8975,
      "Ġdivers": 8976,
      "ĠUr": 8977,
      "ĠUiteindelijk": 8978,
      "Ġrub": 8979,
      "Ġgedwongen": 8980,
      "Ġroze": 8981,
      "Ġrouw": 8982,
      "Ġbenen": 8983,
      "gebre": 8984,
      "ĠStreet": 8985,
      "Ġkwestie": 8986,
      "Ġhouding": 8987,
      "Ġbehang": 8988,
      "Ġbezwaar": 8989,
      "Ġverboden": 8990,
      "Ġverbazen": 8991,
      "Ġsamenwerken": 8992,
      "essies": 8993,
      "ductie": 8994,
      "Ġvertel": 8995,
      "Ġvertrek": 8996,
      "Ġvertaald": 8997,
      "assic": 8998,
      "Ġminimale": 8999,
      "Ġthese": 9000,
      "Ġtherap": 9001,
      "ervang": 9002,
      "ervakantie": 9003,
      "udie": 9004,
      "nth": 9005,
      "ovigen": 9006,
      "Ġverhel": 9007,
      "Ġhandelen": 9008,
      "Ġprobeerde": 9009,
      "eup": 9010,
      "Ġmijl": 9011,
      "ssert": 9012,
      "Ġherstellen": 9013,
      "Ġverweer": 9014,
      "overzicht": 9015,
      "Ġbestemming": 9016,
      "iveaus": 9017,
      "Ġkende": 9018,
      "2010": 9019,
      "Ġarts": 9020,
      "ooth": 9021,
      "acklinks": 9022,
      "izer": 9023,
      "Ġ72": 9024,
      "Ġbovenaan": 9025,
      "vloe": 9026,
      "vloeren": 9027,
      "Ġsynthet": 9028,
      "Ġcontactgegevens": 9029,
      "Ġverminderen": 9030,
      "artement": 9031,
      "ĠSchoon": 9032,
      "Ġresort": 9033,
      "Ġlandelijke": 9034,
      "rump": 9035,
      "Ġelect": 9036,
      "voering": 9037,
      "Ġbrieven": 9038,
      "ĠHieronder": 9039,
      "geleid": 9040,
      "Ġtenzij": 9041,
      "Ġgave": 9042,
      "Ġglitter": 9043,
      "ĠBelang": 9044,
      "ĠBlu": 9045,
      "ĠArch": 9046,
      "Ġmaatschappelijke": 9047,
      "hands": 9048,
      "gaand": 9049,
      "Ġgeldig": 9050,
      "Ġaanval": 9051,
      "Ġgetrouwd": 9052,
      "Ġsterf": 9053,
      "ĠsteroÃ¯den": 9054,
      "Ġknap": 9055,
      "Ġstandpunten": 9056,
      "Ġonderzoeks": 9057,
      "Ġonderzoekers": 9058,
      "Ġbekijk": 9059,
      "Ġvakantiehuizen": 9060,
      "uister": 9061,
      "Ġvierde": 9062,
      "Ġmeditatie": 9063,
      "ĠVolt": 9064,
      "Ġteams": 9065,
      "mailadres": 9066,
      "Ġhulpverlen": 9067,
      "sprogramma": 9068,
      "sproces": 9069,
      "Ġparam": 9070,
      "Ġtref": 9071,
      "Ġvergelijkbaar": 9072,
      "Ġgerealiseerd": 9073,
      "Ġwenkbrauw": 9074,
      "Ġspeeltuin": 9075,
      "Ġneus": 9076,
      "Ġsportieve": 9077,
      "Ġsporthal": 9078,
      "spectie": 9079,
      "Ġfietsroute": 9080,
      "Ġgebeurten": 9081,
      "Ġkruid": 9082,
      "atteland": 9083,
      "Ġslagers": 9084,
      "Ġontvangst": 9085,
      "Verzamel": 9086,
      "Ġmotto": 9087,
      "Ġapart": 9088,
      "Ġuiterlijk": 9089,
      "ĠFlash": 9090,
      "Ġkilometers": 9091,
      "Ġgrapp": 9092,
      "Ġgevoelig": 9093,
      "Ġdierenarts": 9094,
      "Ġprocessen": 9095,
      "Ġpasta": 9096,
      "rollen": 9097,
      "Ġpapa": 9098,
      "Ġdecor": 9099,
      "Ġrenoveren": 9100,
      "Ġjongens": 9101,
      "Ġformaat": 9102,
      "Ġwoordvoerder": 9103,
      "Ġseconde": 9104,
      "Ġzette": 9105,
      "Ġsfeervolle": 9106,
      "Ġverzekerings": 9107,
      "Ġ,,": 9108,
      "Ġfietsp": 9109,
      "Ġcourg": 9110,
      "Ġnadruk": 9111,
      "contact": 9112,
      "ĠPhil": 9113,
      "ĠJohann": 9114,
      "Ġtrop": 9115,
      "Ġverbeterd": 9116,
      "Ġopdrachtgevers": 9117,
      "ĠHouse": 9118,
      "Ġ1998": 9119,
      "Ġsmartphones": 9120,
      "Ġverzameling": 9121,
      "Ġkoken": 9122,
      "ylanders": 9123,
      "Ġoudste": 9124,
      "ĠBestel": 9125,
      "SCO": 9126,
      "ĠDelft": 9127,
      "ĠDelph": 9128,
      "Ġschoonheid": 9129,
      "Ġtoegewezen": 9130,
      "ĠQuick": 9131,
      "Ġkampioen": 9132,
      "Ġdiepte": 9133,
      "sprekend": 9134,
      "2009": 9135,
      "Ġschilderij": 9136,
      "Ġschilderijen": 9137,
      "Ġbacklinks": 9138,
      "Ġgastronom": 9139,
      "Ġpuntenwolk": 9140,
      "Ġservers": 9141,
      "Ġklimaatverandering": 9142,
      "uleerd": 9143,
      "Ġmassa": 9144,
      "Ġmassage": 9145,
      "Ġbronnen": 9146,
      "Ġverzorging": 9147,
      "Ġpremier": 9148,
      "Ġpremium": 9149,
      "Ġuniversiteit": 9150,
      "Ġdocenten": 9151,
      "Ġkapot": 9152,
      "Ġbedienen": 9153,
      "Hieronder": 9154,
      "relatie": 9155,
      "Ġessentieel": 9156,
      "Ġgeheim": 9157,
      "Elk": 9158,
      "Ġopmerkingen": 9159,
      "Ġaanmelden": 9160,
      "Ġsignalen": 9161,
      "Ġprestatie": 9162,
      "Welkom": 9163,
      "vergadering": 9164,
      "vergunning": 9165,
      "Ġscheiding": 9166,
      "Ġkwartaal": 9167,
      "Ġhuwelijk": 9168,
      "Ġflexib": 9169,
      "ĠContact": 9170,
      "Ġstrategische": 9171,
      "Ġstevig": 9172,
      "ĠAirport": 9173,
      "ĠTurkije": 9174,
      "OLF": 9175,
      "Ġoppervlakte": 9176,
      "Ġtempo": 9177,
[...]
